{"<SYS>":0,"<USER>":1,"<ASSISTANT>":2,"<PAD>":3,"<BOS>":4,"<EOS>":5,"!":6,"\"":7,"#":8,"$":9,"%":10,"&":11,"'":12,"(":13,")":14,"*":15,"+":16,",":17,"-":18,".":19,"/":20,"0":21,"1":22,"2":23,"3":24,"4":25,"5":26,"6":27,"7":28,"8":29,"9":30,":":31,";":32,"<":33,"=":34,">":35,"?":36,"@":37,"A":38,"B":39,"C":40,"D":41,"E":42,"F":43,"G":44,"H":45,"I":46,"J":47,"K":48,"L":49,"M":50,"N":51,"O":52,"P":53,"Q":54,"R":55,"S":56,"T":57,"U":58,"V":59,"W":60,"X":61,"Y":62,"Z":63,"[":64,"\\":65,"]":66,"^":67,"_":68,"`":69,"a":70,"b":71,"c":72,"d":73,"e":74,"f":75,"g":76,"h":77,"i":78,"j":79,"k":80,"l":81,"m":82,"n":83,"o":84,"p":85,"q":86,"r":87,"s":88,"t":89,"u":90,"v":91,"w":92,"x":93,"y":94,"z":95,"{":96,"|":97,"}":98,"~":99,"¡":100,"¢":101,"£":102,"¤":103,"¥":104,"¦":105,"§":106,"¨":107,"©":108,"ª":109,"«":110,"¬":111,"®":112,"¯":113,"°":114,"±":115,"²":116,"³":117,"´":118,"µ":119,"¶":120,"·":121,"¸":122,"¹":123,"º":124,"»":125,"¼":126,"½":127,"¾":128,"¿":129,"À":130,"Á":131,"Â":132,"Ã":133,"Ä":134,"Å":135,"Æ":136,"Ç":137,"È":138,"É":139,"Ê":140,"Ë":141,"Ì":142,"Í":143,"Î":144,"Ï":145,"Ð":146,"Ñ":147,"Ò":148,"Ó":149,"Ô":150,"Õ":151,"Ö":152,"×":153,"Ø":154,"Ù":155,"Ú":156,"Û":157,"Ü":158,"Ý":159,"Þ":160,"ß":161,"à":162,"á":163,"â":164,"ã":165,"ä":166,"å":167,"æ":168,"ç":169,"è":170,"é":171,"ê":172,"ë":173,"ì":174,"í":175,"î":176,"ï":177,"ð":178,"ñ":179,"ò":180,"ó":181,"ô":182,"õ":183,"ö":184,"÷":185,"ø":186,"ù":187,"ú":188,"û":189,"ü":190,"ý":191,"þ":192,"ÿ":193,"Ā":194,"ā":195,"Ă":196,"ă":197,"Ą":198,"ą":199,"Ć":200,"ć":201,"Ĉ":202,"ĉ":203,"Ċ":204,"ċ":205,"Č":206,"č":207,"Ď":208,"ď":209,"Đ":210,"đ":211,"Ē":212,"ē":213,"Ĕ":214,"ĕ":215,"Ė":216,"ė":217,"Ę":218,"ę":219,"Ě":220,"ě":221,"Ĝ":222,"ĝ":223,"Ğ":224,"ğ":225,"Ġ":226,"ġ":227,"Ģ":228,"ģ":229,"Ĥ":230,"ĥ":231,"Ħ":232,"ħ":233,"Ĩ":234,"ĩ":235,"Ī":236,"ī":237,"Ĭ":238,"ĭ":239,"Į":240,"į":241,"İ":242,"ı":243,"Ĳ":244,"ĳ":245,"Ĵ":246,"ĵ":247,"Ķ":248,"ķ":249,"ĸ":250,"Ĺ":251,"ĺ":252,"Ļ":253,"ļ":254,"Ľ":255,"ľ":256,"Ŀ":257,"ŀ":258,"Ł":259,"ł":260,"Ń":261,"Ġt":262,"Ġa":263,"in":264,"ou":265,"re":266,"he":267,"ing":268,"Ġs":269,"on":270,"nd":271,"at":272,"Ġw":273,"Ġy":274,"Ġc":275,"Ġyou":276,"Ġm":277,"ĠI":278,"Ġto":279,"Ġf":280,"er":281,"or":282,"en":283,"it":284,"Ġb":285,"el":286,"Ġand":287,"es":288,"Ġth":289,"an":290,"Ġthe":291,"al":292,"Ġo":293,"Ġp":294,"is":295,"Ġd":296,"ve":297,"ar":298,"Ġh":299,"Ġl":300,"ion":301,"Ġe":302,"om":303,"Ġyour":304,"Ġbe":305,"ed":306,"Ġin":307,"Ġre":308,"Ġof":309,"'s":310,"ct":311,"Ġhe":312,"Ġn":313,"st":314,"Ġg":315,"le":316,"Ġthat":317,"ow":318,"Ġmy":319,"Ġfe":320,"ly":321,"Ġha":322,"ke":323,"Ġst":324,"ie":325,"Ġit":326,"se":327,"im":328,"ĠIt":329,"ic":330,"Ġcan":331,"Ġfeel":332,"em":333,"ot":334,"Ġcon":335,"ent":336,"ay":337,"gh":338,"Ġli":339,"ver":340,"Ġu":341,"ith":342,"out":343,"ce":344,"Ġfor":345,"Ġme":346,"Ġwith":347,"id":348,"pp":349,"ort":350,"il":351,"elf":352,"ss":353,"ut":354,"ation":355,"Ġex":356,"Ġon":357,"ul":358,"et":359,"Ġan":360,"ess":361,"ra":362,"Ġsu":363,"ro":364,"if":365,"Ġthis":366,"Ġis":367,"Ġab":368,"'m":369,"Ġal":370,"Ġlike":371,"pe":372,"hat":373,"ant":374,"ind":375,"our":376,"ate":377,"ĠT":378,"ght":379,"Ġj":380,"ch":381,"ĠC":382,"ak":383,"Ġexp":384,"ore":385,"ome":386,"Ġhave":387,"Ġne":388,"th":389,"Ġabout":390,"her":391,"ep":392,"ur":393,"Ġtr":394,"Ġbeen":395,"ĠH":396,"ld":397,"fe":398,"ive":399,"Ġor":400,"Ġwor":401,"self":402,"pport":403,"Ġfr":404,"ĠA":405,"ies":406,"ress":407,"Ġpro":408,"'ve":409,"ne":410,"Ġcom":411,"art":412,"'t":413,"ell":414,"Ġsupport":415,"lp":416,"Ġch":417,"Ġhelp":418,"Ġim":419,"Ġfeeling":420,"ould":421,"har":422,"Ġbut":423,"Ġse":424,"Ġem":425,"iv":426,"ally":427,"lie":428,"ations":429,"are":430,"ound":431,"ions":432,"ill":433,"Ġwe":434,"and":435,"ful":436,"Ġare":437,"'re":438,"ain":439,"ad":440,"nder":441,"Ġwhe":442,"ge":443,"ard":444,"Ġany":445,"all":446,"harlie":447,"ĠCharlie":448,"ust":449,"am":450,"est":451,"ber":452,"hi":453,"ely":454,"Ġtim":455,"Ġimp":456,"ember":457,"Ġunder":458,"Ġde":459,"Ġself":460,"Ġdo":461,"ble":462,"ight":463,"Ġfind":464,"Ġas":465,"ol":466,"ake":467,"ide":468,"stand":469,"Ġlo":470,"Ġway":471,"ough":472,"Ġheal":473,"Ġwork":474,"Ġnot":475,"Ġunderstand":476,"ist":477,"ig":478,"Ġsome":479,"Ġtime":480,"ĠW":481,"hip":482,"ir":483,"ther":484,"ers":485,"Ġmore":486,"ĠR":487,"us":488,"Ġrel":489,"Ġgo":490,"Ġen":491,"as":492,"Ġover":493,"ance":494,"ity":495,"very":496,"Ġgr":497,"Ġho":498,"Ġthere":499,"one":500,"Ġint":501,"Ġwhat":502,"Ġthese":503,"ure":504,"Ġout":505,"ci":506,"qu":507,"Ġsh":508,"Ġemot":509,"ging":510,"ac":511,"ĠRem":512,"Ġstr":513,"ĠRemember":514,"ment":515,"Ġhow":516,"Ġgu":517,"kn":518,"Ġexpl":519,"Ġour":520,"iend":521,"ach":522,"Ġv":523,"ationship":524,"lex":525,"Ġrelationship":526,"ien":527,"ict":528,"reat":529,"able":530,"Ġmyself":531,"know":532,"Ġyourself":533,"Ġwh":534,"Ġsee":535,"Ġother":536,"ace":537,"Ġthr":538,"Ġdis":539,"Ġfrom":540,"Ġtak":541,"Ġwhen":542,"ĠAlex":543,"ren":544,"Ġstep":545,"Ġad":546,"red":547,"un":548,"Ġjour":549,"ink":550,"ward":551,"Ġconf":552,"ĠHow":553,"op":554,"Ġwill":555,"Ġthrough":556,"Ġup":557,"Ġso":558,"Ġwant":559,"Ġneed":560,"Ġfriend":561,"Ġthink":562,"allen":563,"Ġhas":564,"Ġlife":565,"Ġchallen":566,"Ġres":567,"Ġcomm":568,"ting":569,"rap":570,"Ġr":571,"ĠThat":572,"ities":573,"ĠY":574,"Ġpo":575,"ving":576,"Ġdif":577,"ter":578,"Ġsound":579,"cess":580,"ought":581,"ney":582,"Ġjourney":583,"ven":584,"ense":585,"king":586,"ose":587,"Ġimport":588,"be":589,"Ġexper":590,"Ġop":591,"Ġat":592,"iz":593,"Ġpers":594,"ily":595,"ific":596,"Ġle":597,"Ġspe":598,"ave":599,"Ġsounds":600,"ĠB":601,"Ġact":602,"Ġapp":603,"Ġexperien":604,"ns":605,"Ġthought":606,"pect":607,"ll":608,"Ġimportant":609,"ri":610,"Ġwould":611,"ong":612,"Ġall":613,"act":614,"Ġstart":615,"Ġtherap":616,"Ġemotions":617,"Ġexplore":618,"Ġhealth":619,"av":620,"Ġevery":621,"ty":622,"Ġhere":623,"Ġsense":624,"Ġknow":625,"Ġrem":626,"Ġcould":627,"Ġthem":628,"od":629,"Ġfriends":630,"sit":631,"ĠHave":632,"Ġwell":633,"Ġcont":634,"ness":635,"Ġif":636,"Ġadd":637,"ĠThe":638,"omet":639,"Ġreally":640,"oy":641,"come":642,"so":643,"Ġbr":644,"ue":645,"Ġfeelings":646,"Ġjust":647,"ĠS":648,"reak":649,"Ġanx":650,"Ġun":651,"ult":652,"hing":653,"Ġmake":654,"ank":655,"way":656,"thing":657,"Ġtoward":658,"Ġdon":659,"Ġalso":660,"Ġlove":661,"Ġwho":662,"ond":663,"nect":664,"Ġopen":665,"Ġus":666,"Ġtowards":667,"ild":668,"Ġpe":669,"Ġinc":670,"Ġby":671,"ating":672,"Ġcons":673,"ous":674,"Ġtry":675,"get":676,"Ġdisc":677,"Ġaf":678,"ings":679,"Ġrec":680,"Ġguid":681,"Ġthey":682,"Ġpart":683,"wn":684,"Ġmind":685,"Ġnew":686,"oc":687,"Ġcomp":688,"lict":689,"Ġbel":690,"fect":691,"ieve":692,"Ġhope":693,"ĠL":694,"ional":695,"Ġfeels":696,"Ġqu":697,"ĠYou":698,"Ġprocess":699,"Ġown":700,"Ġhapp":701,"Ġhear":702,"Ġmight":703,"Ġmay":704,"ass":705,"hank":706,"Ġconflict":707,"Ġac":708,"Ġinto":709,"ated":710,"Ġfam":711,"ces":712,"ast":713,"'ll":714,"Ġchallenging":715,"fic":716,"gg":717,"gether":718,"ĠWhat":719,"Ġpain":720,"Ġguidance":721,"iety":722,"Ġothers":723,"Ġsomet":724,"Ġpat":725,"Ġfamily":726,"cific":727,"ĠCan":728,"Ġspecific":729,"Ġman":730,"Ġhealing":731,"uring":732,"Ġcommun":733,"Ġfear":734,"ib":735,"Ġprov":736,"Ġperson":737,"Ġactiv":738,"ract":739,"Ġmom":740,"Ġtake":741,"ial":742,"Ġstress":743,"ine":744,"erful":745,"whe":746,"Ġnow":747,"Ġtal":748,"Ġeven":749,"ways":750,"Ġpl":751,"Ġanxiety":752,"ry":753,"Ġcou":754,"Ġtakes":755,"Ġposit":756,"vers":757,"Ġconst":758,"ack":759,"Ġcare":760,"Ġalways":761,"lm":762,"Ġchan":763,"whelm":764,"ner":765,"age":766,"Ġoverwhelm":767,"ges":768,"ately":769,"Ġtherapy":770,"com":771,"Ġconnect":772,"Ġrelationships":773,"ocus":774,"Ġar":775,"Ġgrow":776,"Ġtell":777,"Ġgreat":778,"care":779,"Ġtheir":780,"Ġdeep":781,"Ġconstant":782,"Ġsp":783,"cer":784,"Ġexpress":785,"Ġcommunic":786,"Ġval":787,"Ġanything":788,"Ġconvers":789,"Ġdiffic":790,"ĠM":791,"Ġfocus":792,"cial":793,"Ġcl":794,"itu":795,"Ġmoment":796,"Ġseem":797,"uild":798,"Ġbet":799,"fort":800,"Ġwond":801,"aking":802,"Ġful":803,"being":804,"Ġmo":805,"pt":806,"Ġca":807,"ateg":808,"Ġtogether":809,"ream":810,"iness":811,"Ġpositive":812,"Ġstrateg":813,"Ġdifficult":814,"Ġprovide":815,"olut":816,"ility":817,"Ġgoing":818,"Ġthose":819,"Ġbreak":820,"Ġdes":821,"Ġfinding":822,"Ġactivities":823,"avig":824,"Ġnavig":825,"Ġdream":826,"Ġunderstanding":827,"Ġsomeone":828,"ize":829,"cing":830,"Ġimpact":831,"Ġlot":832,"Ġthoughts":833,"Ġbelieve":834,"Ġstrategies":835,"ign":836,"Ġthings":837,"Ġright":838,"Ġstru":839,"feren":840,"Ġsomething":841,"Ġte":842,"Ġbeing":843,"Ġremember":844,"ues":845,"ĠLet":846,"ĠIs":847,"Ġseeking":848,"uss":849,"Ġreach":850,"Ġhard":851,"Ġdiscuss":852,"Ġke":853,"Ġjoy":854,"Ġdifferen":855,"reng":856,"Ġel":857,"Thank":858,"Ġstreng":859,"Ġwhere":860,"Ġwas":861,"Ġnavigate":862,"Ġbring":863,"ag":864,"ied":865,"ens":866,"Ġher":867,"ief":868,"Ġam":869,"ractic":870,"hy":871,"Ġhad":872,"Ġstrugg":873,"ious":874,"Ġappre":875,"Ġlately":876,"Ġwonderful":877,"Ġtaking":878,"Ġmean":879,"Ġsitu":880,"orm":881,"og":882,"Well":883,"Ġef":884,"Ġpractic":885,"Ġsm":886,"bb":887,"Ġlist":888,"Ġgrowth":889,"Ġunderstandable":890,"ening":891,"ire":892,"Ġconcer":893,"Ġelse":894,"own":895,"um":896,"use":897,"vel":898,"Ġbot":899,"Ġshare":900,"Ġone":901,"este":902,"esteem":903,"Ġexc":904,"assion":905,"Ġduring":906,"Ġhobb":907,"Ġpersonal":908,"led":909,"Ġappreci":910,"ca":911,"Ġappro":912,"ential":913,"Ġtalk":914,"Ġtrust":915,"ab":916,"oping":917,"Ġincred":918,"oring":919,"Ġcre":920,"pl":921,"Ġset":922,"Ġsmall":923,"Ġpre":924,"ĠBut":925,"Ġdef":926,"Ġget":927,"ople":928,"tain":929,"iction":930,"Ġes":931,"Ġconversation":932,"idered":933,"Ġconsidered":934,"Ġwithin":935,"gain":936,"orth":937,"ement":938,"Ġstrength":939,"ud":940,"ĠE":941,"Ġprof":942,"let":943,"Ġways":944,"Ġpeople":945,"Ġsuch":946,"Ġsteps":947,"Ġemb":948,"Ġdoes":949,"ten":950,"Ġins":951,"Ġper":952,"Ġappreciate":953,"ence":954,"iqu":955,"Ġaffect":956,"Ġheart":957,"Ġind":958,"Ġcommunication":959,"Ġcreate":960,"Ġkeep":961,"Ġcr":962,"als":963,"'d":964,"rage":965,"Ġoff":966,"lect":967,"It":968,"cis":969,"Ġiss":970,"Ġtried":971,"nt":972,"Ġgood":973,"Ġboth":974,"Ġalone":975,"Ġquest":976,"urt":977,"os":978,"Ġsign":979,"Ġdown":980,"Ġconflicts":981,"Ġhelpful":982,"Ġlet":983,"ĠO":984,"Ġoften":985,"Ġpeace":986,"Ġconcerns":987,"ibly":988,"Ġapproach":989,"ative":990,"fill":991,"Ġhon":992,"Ġeach":993,"Ġnever":994,"Ġsa":995,"Âł":996,"Ġaddiction":997,"int":998,"rior":999,"Ġspace":1000,"ves":1001,"knowled":1002,"Ġtru":1003,"up":1004,"Ġtruly":1005,"Ġincredibly":1006,"ĠWe":1007,"Ġfulfill":1008,"Ġgl":1009,"aging":1010,"Ġreal":1011,"Ġnat":1012,"ĠTh":1013,"Ġemp":1014,"Ġwel":1015,"Ġwelcome":1016,"imes":1017,"Ġallow":1018,"Ġneg":1019,"oub":1020,"Ġhaving":1021,"ering":1022,"ĠYour":1023,"Ġforward":1024,"ident":1025,"Ġcreat":1026,"Ġprior":1027,"Ġexploring":1028,"ier":1029,"arn":1030,"Ġdifferent":1031,"Ġcoping":1032,"Ġmoments":1033,"Ġoverwhelming":1034,"Ġwithout":1035,"bs":1036,"du":1037,"uilding":1038,"Ġhappiness":1039,"Ġexperiences":1040,"Ġno":1041,"Ġhaven":1042,"Ġchallenges":1043,"uch":1044,"Ġdoing":1045,"Ġexcit":1046,"Ġback":1047,"ons":1048,"Ġchange":1049,"Ġacknowled":1050,"Ġprog":1051,"Ġmuch":1052,"Ġemotional":1053,"Ġmaking":1054,"ĠF":1055,"cause":1056,"Ġconstantly":1057,"Ġperspect":1058,"Ġtrig":1059,"Ġide":1060,"Ġworth":1061,"Ġstruggl":1062,"ha":1063,"Ġbecause":1064,"Ġk":1065,"akes":1066,"olutely":1067,"Ġprogress":1068,"Ġgive":1069,"Ġprofess":1070,"Ġday":1071,"Ġtherapist":1072,"Ġmot":1073,"Ġcomplet":1074,"ady":1075,"Ġaddress":1076,"ade":1077,"Ġremind":1078,"Ġpast":1079,"Ġfre":1080,"oubt":1081,"ionally":1082,"Ġexperience":1083,"Ġglad":1084,"Ġcaus":1085,"Ġissues":1086,"ect":1087,"Ġprofessional":1088,"ame":1089,"ible":1090,"Ġwilling":1091,"Ġresp":1092,"Ġdist":1093,"ds":1094,"Ġcourage":1095,"Ġplan":1096,"day":1097,"Ġpriorit":1098,"ok":1099,"Ġtrying":1100,"Ġexpect":1101,"ience":1102,"Ġlearn":1103,"hen":1104,"Ġsignific":1105,"Ġjo":1106,"ĠP":1107,"hile":1108,"Ġsy":1109,"ail":1110,"end":1111,"Ġpr":1112,"Ġshe":1113,"Ġcontin":1114,"Ġenv":1115,"Ġcomfort":1116,"ever":1117,"Ġatt":1118,"Ġcompletely":1119,"rib":1120,"Ġmanage":1121,"Ġloved":1122,"chn":1123,"ism":1124,"nal":1125,"Ġcome":1126,"Ġsignificant":1127,"Ġlong":1128,"Ġposs":1129,"Ġtrigg":1130,"Ġvery":1131,"Ġtechn":1132,"ient":1133,"bsolutely":1134,"co":1135,"ite":1136,"Ġfriendship":1137,"Ġwords":1138,"Ġwr":1139,"Ġro":1140,"Ġtechniqu":1141,"Ġhealthy":1142,"Ġdevel":1143,"Ġused":1144,"Ġeng":1145,"Ġref":1146,"Ġexperiencing":1147,"Ġpur":1148,"Ġquestion":1149,"cou":1150,"Ġdep":1151,"Ġpow":1152,"ĠD":1153,"Ġsafe":1154,"Ġmotiv":1155,"irst":1156,"Ġhim":1157,"ribut":1158,"aybe":1159,"dd":1160,"Ġseems":1161,"Ġagain":1162,"Ġment":1163,"ary":1164,"Ġda":1165,"por":1166,"Ġco":1167,"Ġfut":1168,"Ġinv":1169,"Ġess":1170,"Ġneeds":1171,"ogn":1172,"Ġtimes":1173,"Ġfuture":1174,"Ġcontribut":1175,"Ġbal":1176,"Ġnotic":1177,"Ġoverwhelmed":1178,"cially":1179,"pportun":1180,"Ġopportun":1181,"ps":1182,"Ġable":1183,"Ġtra":1184,"ish":1185,"ments":1186,"Ġbetter":1187,"Ġsad":1188,"Ġessential":1189,"never":1190,"ĠIn":1191,"Ġalong":1192,"Yes":1193,"ilities":1194,"we":1195,"ĠBy":1196,"urther":1197,"Ġlisten":1198,"Ġgrief":1199,"pecially":1200,"Ġhealthier":1201,"ors":1202,"Ġfurther":1203,"Ġespecially":1204,"ks":1205,"Ġmade":1206,"Ġkind":1207,"Ġach":1208,"Ġovercome":1209,"Ġsituation":1210,"Ġones":1211,"Ġtoday":1212,"Ġimpro":1213,"Ġembra":1214,"Ġcontro":1215,"Ġreg":1216,"joy":1217,"Ġpres":1218,"Ġtechniques":1219,"Ġidea":1220,"Ġpartner":1221,"Ġend":1222,"Ġenjoy":1223,"Ġpare":1224,"Ġinte":1225,"Ġonly":1226,"ical":1227,"Ġdreams":1228,",,":1229,"Ġmost":1230,"comp":1231,"izing":1232,"ĠHowever":1233,"Ġcontinue":1234,"Ġmain":1235,"ression":1236,"Ġbreakup":1237,"Ġperspective":1238,"Ġcontrol":1239,"ost":1240,"Ġpainting":1241,"Ġsim":1242,"Ġencou":1243,"ich":1244,"Ġeverything":1245,"Ġsupportive":1246,"Ġfirst":1247,"ĠThank":1248,"Ġeffect":1249,"ject":1250,"Ġgoals":1251,"Ġstarted":1252,"ĠAdd":1253,"Ġsuc":1254,"Ġthan":1255,"Ġoverall":1256,"Ġstrong":1257,"ual":1258,"Ġmakes":1259,"Ġhobby":1260,"Ġtough":1261,"haring":1262,"Ġexpectations":1263,"Ġcru":1264,"ĠMaybe":1265,"cept":1266,"Ġdefin":1267,"Ġpatter":1268,"cle":1269,"Ġwhich":1270,"itt":1271,"Ġworry":1272,"Ġnorm":1273,"Ġcrucial":1274,"udg":1275,"Ġpress":1276,"Ġbest":1277,"Ġeffort":1278,"Ġguess":1279,"Ġability":1280,"set":1281,"Ġsess":1282,"ercis":1283,"Ġcur":1284,"Ġmed":1285,"rest":1286,"Ġchanges":1287,"Ġprioritize":1288,"Ġdid":1289,"Ġlost":1290,"Ġnormal":1291,"Ġshould":1292,"Ġpressure":1293,"itely":1294,"Ġresil":1295,"ween":1296,"ĠThis":1297,"break":1298,"Ġbetween":1299,"hed":1300,"Ġacknowledge":1301,"Ġfac":1302,"Ġexercis":1303,"Ġconnection":1304,"Ġwhy":1305,"Ġdeser":1306,"Ġwhile":1307,"Ġstill":1308,"Ġvalid":1309,"Ġmat":1310,"Ġgrou":1311,"Ġhonest":1312,"Ġreaching":1313,"aries":1314,"idence":1315,"ĠAs":1316,"erm":1317,"Ġbalance":1318,"Ġbound":1319,"ather":1320,"igh":1321,"Ġsituations":1322,"ood":1323,"Ġwhenever":1324,"lying":1325,"Ġhobbies":1326,"Ġsur":1327,"Ġchild":1328,"Ġsol":1329,"Ġinterest":1330,"Ġbit":1331,"Ġfew":1332,"Ġdet":1333,"ĠThey":1334,"Ġcommon":1335,"Ġbur":1336,"Ġbecome":1337,"Ġass":1338,"aut":1339,"Ġtrue":1340,"Ġbeaut":1341,"hys":1342,"fore":1343,"Ġpot":1344,"Ġnatur":1345,"Ġstay":1346,"br":1347,"Ġboundaries":1348,"Ġnoticed":1349,"Ġsuccess":1350,"vent":1351,"nsel":1352,"ark":1353,"compassion":1354,"ise":1355,"Ġsetting":1356,"Ġtoo":1357,"ently":1358,"ck":1359,"ĠHi":1360,"Ġmust":1361,"onnect":1362,"Ġhopeful":1363,"Ġgiv":1364,"Ġnegative":1365,"ivid":1366,"Ġaspect":1367,"Ġcy":1368,"Ġenough":1369,"Ġaffecting":1370,"ify":1371,"Ġphys":1372,"form":1373,"Ġdevelop":1374,"ustr":1375,"ively":1376,"Ġfree":1377,"Ġlead":1378,"ase":1379,"Ġfin":1380,"Ġtriggers":1381,"Ġcycle":1382,"ele":1383,"Ġever":1384,"Ġempat":1385,"Ġfrustr":1386,"Ġsay":1387,"Ġcausing":1388,"Ġnatural":1389,"ĠAre":1390,"Ġsadness":1391,"Ġhand":1392,"Ġhold":1393,"Ġimprove":1394,"Ġfound":1395,"ually":1396,"Ġ!":1397,"ear":1398,"iting":1399,"Ġjob":1400,"Ġreflect":1401,"Ġnurt":1402,"cur":1403,"Ġcounsel":1404,"Ġresilience":1405,"Ġrout":1406,"iss":1407,"Ġindivid":1408,"Ġrecogn":1409,"Ġwere":1410,"Ġdaily":1411,"ple":1412,"Ġeveryone":1413,"Ġhesit":1414,"ĠIf":1415,"Ġparent":1416,"Ġbefore":1417,"ories":1418,"ulner":1419,"Ġjudg":1420,"Ġstruggling":1421,"Ġpath":1422,"ggest":1423,"Ġput":1424,"Ġsuggest":1425,"Ġsharing":1426,"ĠHe":1427,"itionally":1428,"Ġdoesn":1429,"That":1430,"Ġdefinitely":1431,"gu":1432,"round":1433,"Ġloss":1434,"Ġburd":1435,"Ġpresent":1436,"elt":1437,"Ġvulner":1438,"rag":1439,"Ġinse":1440,"ĠWhen":1441,"Ġcar":1442,"rel":1443,"Ġsure":1444,"Ġanxious":1445,"Ġheartbreak":1446,"kay":1447,"Ġbreat":1448,"elebr":1449,"Ġfulfillment":1450,"Ġexpressing":1451,"fulness":1452,"Ġcomes":1453,"Ġpatterns":1454,"rain":1455,"ced":1456,"ice":1457,"Ġconnections":1458,"Ġfail":1459,"Ġmeet":1460,"Ġtalking":1461,"Ġoffer":1462,"Ġface":1463,"alm":1464,"Ġroutine":1465,"ĠAdditionally":1466,"Ġhurt":1467,"ĠTake":1468,"Ġconsid":1469,"Ġrelie":1470,"Ġrespons":1471,"Ġbeh":1472,"Ġinter":1473,"Ġcol":1474,"Ġokay":1475,"Ġwon":1476,"Ġtool":1477,"Ġreb":1478,"ĠMy":1479,"Ġident":1480,"Ġaway":1481,"oint":1482,"ular":1483,"orpor":1484,"Ġseek":1485,"Ġdoubt":1486,"Ġpowerful":1487,"Ġmem":1488,"Ġcalm":1489,"Ġrela":1490,"Ġgra":1491,"Hi":1492,"ometimes":1493,"related":1494,"Ġsometimes":1495,"Ġmaintain":1496,"Ġinsight":1497,"Ġstarting":1498,"onment":1499,"Ġdesire":1500,"Ġsc":1501,"ability":1502,"ĠTo":1503,"Ġlon":1504,"ene":1505,"riend":1506,"Ġpatient":1507,"Ġvalu":1508,"Ġ\"":1509,"Ġpotential":1510,"isco":1511,"ision":1512,"Ġenvir":1513,"Ġbene":1514,"Ġguil":1515,"olve":1516,"Ġdeeper":1517,"Ġmeans":1518,"chan":1519,"app":1520,"Ġachieve":1521,"Ġmove":1522,"Ġdeterm":1523,"stem":1524,"iful":1525,"Ġthroughout":1526,"Ġfully":1527,"..":1528,"Ġbeautiful":1529,"Ġpracticing":1530,"ination":1531,"Ġsystem":1532,"Ġart":1533,"elves":1534,"Ġopportunity":1535,"Ġwal":1536,"Ġfelt":1537,"Ġafter":1538,"Ġaround":1539,"Ġopt":1540,"ift":1541,"lo":1542,"Ġenvironment":1543,"Ġheav":1544,"ĠN":1545,"pir":1546,"Ġbuilding":1547,"Ġinde":1548,"selves":1549,"Ġlistening":1550,"Ġworld":1551,"Ġfears":1552,"ĠRe":1553,"Ġspecifically":1554,"Ġpurs":1555,"Ġready":1556,"Ġche":1557,"Ġrelax":1558,"disco":1559,"Ġeas":1560,"Ġimag":1561,"Ġgain":1562,"ĠG":1563,"Ġbeg":1564,"Ġincorpor":1565,"astic":1566,"Ġconversations":1567,"ft":1568,"Ġmindset":1569,"Ġdepression":1570,"ĠSometimes":1571,"erv":1572,"side":1573,"raid":1574,"ap":1575,"Ġbo":1576,"Ġmechan":1577,"Ġmechanism":1578,"Ġreject":1579,"Ġafraid":1580,"Ġdecis":1581,"Ġfant":1582,"Ġpractice":1583,"Ġdeserve":1584,"Ġsor":1585,"ger":1586,"Ġexcited":1587,"Ġpoint":1588,"Ġsk":1589,"ello":1590,"Ġdeal":1591,"leep":1592,"oid":1593,"Ġconfidence":1594,"Ġshow":1595,"Ġthen":1596,"Ġcope":1597,"back":1598,"ife":1599,"Ġinst":1600,"Ġsocial":1601,"Ġcle":1602,"Ġworking":1603,"Ġfantastic":1604,"Ġgen":1605,"Ġburden":1606,"Ġweight":1607,"Ġfriendships":1608,"Ġtens":1609,"Ġcreating":1610,"ĠAbsolutely":1611,"Ġmental":1612,"ances":1613,"friend":1614,"Ġunderlying":1615,"Ġdisapp":1616,"ĠHello":1617,"ills":1618,"ittle":1619,"Ġhappen":1620,"Ġtran":1621,"Ġphysical":1622,"Ġfulfilling":1623,"Ġtur":1624,"Ġtoll":1625,"erg":1626,"Ġav":1627,"other":1628,"Ġmindfulness":1629,"Ġnature":1630,"Ġrelief":1631,"Ġsorry":1632,"Ġmatter":1633,"ready":1634,"less":1635,"olution":1636,"Ġengaging":1637,"Ġregain":1638,"Ġalready":1639,"arri":1640,"Ġlittle":1641,"Ġcommunicate":1642,"Ġbelief":1643,"Ġple":1644,"Ġhis":1645,"Ġcareer":1646,"Ġresponsib":1647,"istic":1648,"Ġspend":1649,"Ġstruggle":1650,"Ġdistract":1651,"Ġclose":1652,"Ġdifference":1653,"Ġtaken":1654,"Ġbegin":1655,"Ġpossible":1656,"Ġtension":1657,"Ġmotivation":1658,"Ġrecently":1659,"ince":1660,"Ġparents":1661,"Ġjudgment":1662,"Ġimagine":1663,"avi":1664,"Ġenerg":1665,"Ġsleep":1666,"ĠTogether":1667,"Ġempathy":1668,"Ġbuild":1669,"Ġjournal":1670,"Ġfailure":1671,"Ġmechanisms":1672,"xt":1673,"Ġembrace":1674,"Ġsame":1675,"rent":1676,"ory":1677,"Ġmany":1678,"Ġvaluable":1679,"itic":1680,"Ġqual":1681,"Ġpassion":1682,"Ġargu":1683,"Ġmeaning":1684,"Ġrather":1685,"ĠOne":1686,"low":1687,"Ġinsecur":1688,"Ġaspects":1689,"ork":1690,"ron":1691,"haust":1692,"Ġplay":1693,"iate":1694,"Ġenergy":1695,"Ġexhaust":1696,"Ġclear":1697,"Absolutely":1698,"Ġimm":1699,"Ġlook":1700,"Ġwanted":1701,"ateful":1702,"Ġcarry":1703,"edic":1704,"Ġindeed":1705,"Ġcommit":1706,"ĠAnd":1707,"Ġstruggles":1708,"ĠTaking":1709,"Ġgrateful":1710,"ning":1711,"ĠThere":1712,"its":1713,"ized":1714,"Ġbrings":1715,"Ġcelebr":1716,"haps":1717,"Ġhelps":1718,"Ġexcitement":1719,"Ġdedic":1720,"Ġsession":1721,"Ġcult":1722,"uck":1723,"ĠK":1724,"Ġreco":1725,"ody":1726,"Ġisol":1727,"eep":1728,"coming":1729,"Ġleft":1730,"Ġyear":1731,"Ġidentify":1732,"Ġplace":1733,"ught":1734,"Ġskills":1735,"Ġground":1736,"Ġdr":1737,"Ġdefens":1738,"Ġsurround":1739,"Ġmaybe":1740,"Ġrecognize":1741,"Ġgenu":1742,"Ġhappy":1743,"Ġmanaging":1744,"Ġ,":1745,"Ġsym":1746,"Ġgroup":1747,"pend":1748,"Ġfacing":1749,"Ġcurrent":1750,"Ġbehavi":1751,"Ġmus":1752,"ead":1753,"blem":1754,"Ġlevel":1755,"Ġsupp":1756,"cal":1757,"Ġrecovery":1758,"Ġproblem":1759,"Ġask":1760,"Ġnurturing":1761,"Ġhandle":1762,"Ġgetting":1763,"Ġfocusing":1764,"Ġquite":1765,"Ġdisappoint":1766,"The":1767,"Ġcho":1768,"uals":1769,"ptom":1770,"Ġsex":1771,"go":1772,"Ġonce":1773,"Ġcontribute":1774,"Ġexercises":1775,"Ġanyone":1776,"Ġourselves":1777,"Ġindividuals":1778,"ilar":1779,"Ġrejection":1780,"Ġbig":1781,"Ġsymptom":1782,"ached":1783,"de":1784,"Ġdy":1785,"Ġactions":1786,"more":1787,"He":1788,"Ġwriting":1789,"Ġenvision":1790,"Ġdetermination":1791,"nam":1792,"ix":1793,"Ġprovid":1794,"namic":1795,"Ġtas":1796,"asure":1797,"Ġsolace":1798,"Ġtrans":1799,"ĠEx":1800,"Ġadm":1801,"ertain":1802,"Ġtreat":1803,"ficial":1804,"Ġcultiv":1805,"Ġaddit":1806,"pose":1807,"Ġbl":1808,"Ġshift":1809,"Ġuniqu":1810,"ivity":1811,"Ġconsider":1812,"Ġpossib":1813,"certain":1814,"Ġevent":1815,"arm":1816,"Ġpartic":1817,"Ġanymore":1818,"Ġcritic":1819,"Ġdynamic":1820,"Ġbreathing":1821,"Ġcounseling":1822,"Ġmemories":1823,"Ġpass":1824,"Ġsince":1825,"idst":1826,"ragement":1827,"Ġgradu":1828,"ick":1829,"Ġtools":1830,"Ġdecision":1831,"Ġbeneficial":1832,"Ġaccept":1833,"Ġsymptoms":1834,"Ġpurpose":1835,"Ġareas":1836,"Ġthing":1837,"Ġmarri":1838,"Ġless":1839,"oud":1840,"ives":1841,"Ġhead":1842,"ources":1843,"ouble":1844,"Ġfost":1845,"hes":1846,"Ġweigh":1847,"Ġembracing":1848,"ending":1849,"Ġap":1850,"ining":1851,"Ġguide":1852,"Ġsimilar":1853,"Ġinspir":1854,"aving":1855,"Ġreconnect":1856,"Ġengage":1857,"Ġfact":1858,"Ġadv":1859,"Ġunique":1860,"Ġneglect":1861,"ically":1862,"Ġclos":1863,"Ġuncertain":1864,"ĠKeep":1865,"Ġtend":1866,"Ġnext":1867,"Ġloving":1868,"Ġtrouble":1869,"Ġconfident":1870,"Ġeasy":1871,"ieving":1872,"irect":1873,"Ġph":1874,"Ġcompassion":1875,"Ġshared":1876,"Ġclar":1877,"Ġjournaling":1878,"Ġtem":1879,"Ġpainful":1880,"Ġwillingness":1881,"Ġcertain":1882,"ĠThose":1883,"Ġsetback":1884,"Ġscare":1885,"Ġhonor":1886,"Ġquestions":1887,"Ġwrong":1888,"ceive":1889,"abl":1890,"Ġthinking":1891,"ired":1892,"Ġmeaningful":1893,"Ġoutside":1894,"doubt":1895,"Ġregard":1896,"Ġchallenge":1897,"Ġyears":1898,"Ġpursu":1899,"ip":1900,"Ġreached":1901,"Ġvalue":1902,"eness":1903,"to":1904,"Ġrespect":1905,"ru":1906,"Ġmotivated":1907,"Ġthank":1908,"Ġaccom":1909,"Ġlearning":1910,"Ġlives":1911,"ĠWould":1912,"Ġrelaxation":1913,"Ġwhether":1914,"Ġcommitment":1915,"Ġmist":1916,"Ġspending":1917,"Ġfinan":1918,"Ġavoid":1919,"Hey":1920,"Ġhigh":1921,"Ġinner":1922,"Ġstronger":1923,"Ġreass":1924,"ling":1925,"Ġcomfortable":1926,"ng":1927,"Ġnecess":1928,"Ġkey":1929,"Ġgent":1930,"âĢ":1931,"Ġpractices":1932,"Ġlight":1933,"Ġent":1934,"Ġsessions":1935,"heart":1936,"Ġprom":1937,"Ġpower":1938,"Ġyet":1939,"Ġrebuild":1940,"Ġgentle":1941,"Ġallows":1942,"ĠĠ":1943,"Ġdiscou":1944,"Ġinterests":1945,"Ġ(":1946,"Ġstuck":1947,"Ġtasks":1948,"Ġempow":1949,"Ġstrengths":1950,"Ġser":1951,"ered":1952,"Ġtraum":1953,"Ġclarity":1954,"work":1955,"Ġbody":1956,"Ġopportunities":1957,"Ġeffectively":1958,"Ġguilt":1959,"ray":1960,"les":1961,"Ġinf":1962,"Ġgroups":1963,"Ġaccompl":1964,"You":1965,"lev":1966,"Ġheavy":1967,"pped":1968,"ret":1969,"discovery":1970,"Ġtransform":1971,"Ġprofound":1972,"Ġeffective":1973,"Ġabilities":1974,"worth":1975,"bst":1976,"ates":1977,"olving":1978,"ellent":1979,"Ġmiss":1980,"Ġest":1981,"ware":1982,"lud":1983,"Ġsetbacks":1984,"Ġvulnerability":1985,"Ġdisco":1986,"Ġarise":1987,"Ġoutlet":1988,"Ġallev":1989,"Ġperfect":1990,"Ġmusic":1991,"Ġshake":1992,"Ġmoving":1993,"Ġfinancial":1994,"eliness":1995,"Ġreas":1996,"ĠBe":1997,"Ġinsights":1998,"cape":1999,"Ġanger":2000,"tim":2001,"Ġparticular":2002,"Ġemotionally":2003,"Ġrealize":2004,"Ġvalues":2005,"per":2006,"band":2007,"usband":2008,"Ġlast":2009,"vering":2010,"Ġhelping":2011,"Ġhesitate":2012,"Ġfar":2013,"Ġincorporating":2014,"Ġmon":2015,"Ġresolution":2016,"Ġhusband":2017,"oking":2018,"Ġfill":2019,"itation":2020,"itude":2021,"Ġanother":2022,"miss":2023,"Ġtempor":2024,"Ġdeeply":2025,"ines":2026,"ined":2027,"Ġchance":2028,"ĠU":2029,"Ġpleasure":2030,"ried":2031,"Ġturn":2032,"Ġscared":2033,"Ġcelebrate":2034,"Ġpatience":2035,"Ġcolle":2036,"Ġescape":2037,"Ġalleviate":2038,"Ġweighing":2039,"ool":2040,"Ġhesitant":2041,"Ġbeliefs":2042,"Ġmarriage":2043,"Ġsuppose":2044,"Ġcreative":2045,"Ġencouragement":2046,"Ġopening":2047,"iveness":2048,"ĠSt":2049,"Ġinspiring":2050,"Ġexercise":2051,"Ġmis":2052,"Ġdidn":2053,"Ġweak":2054,"ront":2055,"Ġbetray":2056,"Ġvalidation":2057,"ĠThese":2058,"Ġassist":2059,"lu":2060,"Ġacknowledging":2061,"Ġdefensive":2062,"ĠAn":2063,"Ġrole":2064,"hood":2065,"Ġdirect":2066,"Ġactively":2067,"omm":2068,"Ġaffected":2069,"ĠDo":2070,"sh":2071,"Ġembark":2072,"Ġwife":2073,"Ġreact":2074,"Ġconfus":2075,"Ġamidst":2076,"Ġaut":2077,"Ġdealing":2078,"chool":2079,"nderstand":2080,"Ġev":2081,"Ġapart":2082,"Ġnecessary":2083,"Ġoptions":2084,"Ġgiven":2085,"olved":2086,"olutions":2087,"oyfriend":2088,"ention":2089,"Ġhop":2090,"Ġresources":2091,"onest":2092,"Ġexcellent":2093,"Ġhappened":2094,"Ġcontributing":2095,"Ġgradually":2096,"Ġdisheart":2097,"Ġpus":2098,"ements":2099,"ĠJ":2100,"Ġaccomplish":2101,"Ġmeditation":2102,"Ġmember":2103,"Ġexam":2104,"Ġcolleag":2105,"Ġgoal":2106,"eal":2107,"Ġcarrying":2108,"Ġencourage":2109,"Ġschool":2110,"Ġuse":2111,"Ġfrustrating":2112,"Ġwee":2113,"Ġra":2114,"ĠEng":2115,"Ġvar":2116,"aring":2117,"Ġstrengt":2118,"Ġredu":2119,"erhaps":2120,"Ġcap":2121,"Ġexperienced":2122,"Ġmaintaining":2123,"Ġthough":2124,"Ġadditional":2125,"Ġissue":2126,"Ġspecial":2127,"Ġconsum":2128,"Ġdiscussing":2129,"ĠGr":2130,"Ġperspectives":2131,"Ġcultivate":2132,"Ġdisheartening":2133,"itness":2134,"iving":2135,"Ġnet":2136,"Ġsolutions":2137,"Ġmonth":2138,"Ġtw":2139,"Ġcurious":2140,"Ġpassions":2141,"Ġlack":2142,"Ġboyfriend":2143,"ource":2144,"Ġallowing":2145,"Ġpursuing":2146,"Ġdem":2147,"Ġbat":2148,"ctive":2149,"Ġfa":2150,"Ġheard":2151,"Ġstrengthen":2152,"ĠBreak":2153,"rape":2154,"onestly":2155,"Ġneeded":2156,"Ġmistakes":2157,"Ġinflu":2158,"Ġestabl":2159,"Ġwalks":2160,"rapeut":2161,"Ġdrain":2162,"Ġimpacting":2163,"rapeutic":2164,"Ġintens":2165,"Ġtherapeutic":2166,"Ġtop":2167,"ples":2168,"Ġexter":2169,"Ġfi":2170,"Ġdeveloping":2171,"zing":2172,"Ġform":2173,"Ġworried":2174,"Ġinit":2175,"ĠSe":2176,"Ġdel":2177,"rapy":2178,"Ġchildhood":2179,"ograp":2180,"ĠNow":2181,"arch":2182,"Ġadvice":2183,"ĠShe":2184,"Ġconcern":2185,"...":2186,"Ġsexual":2187,"Ġexternal":2188,"Ġwent":2189,"ices":2190,"Ġrequ":2191,"Ġinclud":2192,"Ġshort":2193,"Ġrebuilding":2194,"Ġinsecurities":2195,"ĠOp":2196,"Ġqualities":2197,"Honestly":2198,"flect":2199,"ĠEngaging":2200,"ĠPerhaps":2201,"iet":2202,"Ġresponsibility":2203,"irl":2204,"Ġbrought":2205,"ĠBuilding":2206,"Ġnurture":2207,"Ġroot":2208,"ange":2209,"Ġquestioning":2210,"otograp":2211,"Ġreality":2212,"ĠEm":2213,"Ġloneliness":2214,"Ġwitness":2215,"Ġits":2216,"Ġbond":2217,"Ġfall":2218,"onf":2219,"Ġregular":2220,"Ġknowing":2221,"Ġhappening":2222,"Ġdepend":2223,"sing":2224,"Ġincredible":2225,"Ġregarding":2226,"Ġtemporary":2227,"Ġdec":2228,"Ġfoundation":2229,"Ġtwo":2230,"Ġguilty":2231,"Ġcounselor":2232,"ication":2233,"Ġmention":2234,"Ġmix":2235,"Ġvulnerable":2236,"Ġharm":2237,"Ġbatt":2238,"comes":2239,"la":2240,"Ġgirl":2241,"Ġvarious":2242,"Ġaside":2243,"Ġbehavior":2244,"Ġconfront":2245,"lement":2246,"cure":2247,"Ġimportance":2248,"Ġcaught":2249,"ĠAl":2250,"Ġens":2251,"Ġcolleagues":2252,"Ġactually":2253,"Ġreson":2254,"Ġcriticism":2255,"ishing":2256,"Ġdays":2257,"âĢĻ":2258,"Ġaddressing":2259,"osing":2260,"Ġcomplex":2261,"ealous":2262,"Ġcauses":2263,"res":2264,"umb":2265,"Ġdone":2266,"Ġrepl":2267,"Ġspir":2268,"Ġtrauma":2269,"ah":2270,"Ġprioritizing":2271,"Ġnetwork":2272,"ram":2273,"Ġgiving":2274,"ries":2275,"nting":2276,"load":2277,"bl":2278,"ervous":2279,"Ġresponsibilities":2280,"Ġear":2281,"ĠTherapy":2282,"Ġconsist":2283,"itted":2284,"Ġexhausting":2285,"Ġsource":2286,"irm":2287,"Ġleave":2288,"Ġimplement":2289,"Ġsuggestions":2290,"Ġphotograp":2291,"Ġhelped":2292,"Ġboost":2293,"Ġlosing":2294,"ĠCould":2295,"Ġshows":2296,"Ġembar":2297,"ased":2298,"owns":2299,"Ġarguments":2300,"Ġnervous":2301,"line":2302,"ĠSee":2303,"Ġproblems":2304,"Ġopenly":2305,"Ġjealous":2306,"Ġcommunity":2307,"aches":2308,"Ġmisu":2309,"Ġrequire":2310,"Ġabuse":2311,"Ġabs":2312,"Ġcomforting":2313,"Ġinstead":2314,"Ġsimple":2315,"Ġattention":2316,"Ġworkload":2317,"Ġachievements":2318,"My":2319,"Ġext":2320,"Ġredisco":2321,"Ġside":2322,"Ġvo":2323,"ex":2324,"Ġrespond":2325,"ĠSelf":2326,"Ġcour":2327,"Ġconsidering":2328,"orce":2329,"Ġmonths":2330,"ree":2331,"Ġintim":2332,"any":2333,"Ġgenuin":2334,"Ġgenuinely":2335,"Ġincorporate":2336,"ĠWhile":2337,"Ġtrigger":2338,"ĠRec":2339,"Ġcat":2340,"Ġdefine":2341,"ital":2342,"Ġworries":2343,"abor":2344,"Ġfilled":2345,"Ġisn":2346,"Ġbecoming":2347,"Ġopin":2348,"ĠHaving":2349,"Ġcommitted":2350,"ĠExpl":2351,"Ġnon":2352,"Ġconc":2353,"Ġincre":2354,"Ġlooking":2355,"Ġreminding":2356,"Ġuncertainty":2357,"Ġstressed":2358,"Ġdisag":2359,"Ġunw":2360,"Ġans":2361,"Ġtrapped":2362,"Ġinvest":2363,"raged":2364,"Ġresolving":2365,"otect":2366,"ert":2367,"pr":2368,"Ġforg":2369,"Ġdisappointment":2370,"Ġjoining":2371,"Ġstate":2372,"atitude":2373,"Ġfocused":2374,"Ġdynamics":2375,"ifting":2376,"Ġvict":2377,"Ġdowns":2378,"ouse":2379,"ff":2380,"Ġfactors":2381,"Ġdistress":2382,"Ġfaced":2383,"Ġups":2384,"Ġregret":2385,"Ġbattle":2386,"Ġholding":2387,"Ġintense":2388,"Ġwalk":2389,"Ġlocal":2390,"ĠCh":2391,"Ġnight":2392,"tic":2393,"lease":2394,"ĠSo":2395,"Ġbright":2396,"Ġtired":2397,"ia":2398,"Ġpossibilities":2399,"head":2400,"Ġcommend":2401,"Ġclass":2402,"Ġgot":2403,"Ġstand":2404,"Ġcra":2405,"Ġindividual":2406,"ition":2407,"ĠGrief":2408,"Ġtrusted":2409,"Ġmemory":2410,"Ġalign":2411,"Ġinteract":2412,"Ġguiding":2413,"Ġread":2414,"Ġama":2415,"Ġago":2416,"Ġaff":2417,"Ġbus":2418,"ups":2419,"vered":2420,"Ġlow":2421,"Ġfoster":2422,"Ġpursue":2423,"ĠExploring":2424,"Ġlean":2425,"Ġdisconnect":2426,"ored":2427,"Ġahead":2428,"Ġspeaking":2429,"Ġamazing":2430,"Ġmin":2431,"Ġprotect":2432,"ĠWhe":2433,"ization":2434,"stood":2435,"Ġansw":2436,"Ġunderstands":2437,"Ġensure":2438,"reflect":2439,"Ġdisagre":2440,"labor":2441,"der":2442,"Ġinsecurity":2443,"Ġlive":2444,"Ġworse":2445,"Ġevents":2446,"Ġinfluen":2447,"Ġrest":2448,"Ġgirlfriend":2449,"Ġgenuine":2450,"Ġphotography":2451,"Ġcourse":2452,"Not":2453,"Ġonto":2454,"Ġtopic":2455,"rust":2456,"reflection":2457,"iew":2458,"Ġhome":2459,"hent":2460,"Ġdead":2461,"Ġmembers":2462,"Ġusing":2463,"ile":2464,"Ġchildren":2465,"Ġgratitude":2466,"Ġdesp":2467,"Ġfrustration":2468,"Ġlevels":2469,"Ġune":2470,"Ġang":2471,"ĠBreakups":2472,"cond":2473,"Ġreduce":2474,"Ġescal":2475,"Ġ-":2476,"Ġbra":2477,"Ġslow":2478,"Ġtreatment":2479,"ially":2480,"Ġproact":2481,"Ġcouples":2482,"Ġpeaceful":2483,"Ġauthent":2484,"acy":2485,"Ġvital":2486,"Ġcollabor":2487,"Ġweakness":2488,"ĠWell":2489,"iod":2490,"ĠEmb":2491,"Ġperiod":2492,"ters":2493,"Ġbehind":2494,"ĠEmbra":2495,"ĠCelebr":2496,"Ġplaying":2497,"Ġstop":2498,"Ġdismiss":2499,"Ġresult":2500,"Ġbreath":2501,"Ġlonely":2502,"Ġreceive":2503,"Ġdepth":2504,"Ġexample":2505,"Ġbreaks":2506,"Ġhab":2507,"Ġcoming":2508,"tern":2509,"lines":2510,"Ġmeeting":2511,"life":2512,"Ġaware":2513,"Ġattem":2514,"Ġsolely":2515,"Ġproud":2516,"Ġdesc":2517,"Ġvision":2518,"Ġrealistic":2519,"Ġwonder":2520,"Ġquality":2521,"Ġbenef":2522,"Ġdiscouraged":2523,"Ġprevent":2524,"Ġstrain":2525,"Ġsolution":2526,"Ġimproving":2527,"Ġsche":2528,"Ġangry":2529,"dule":2530,"Ġsurpr":2531,"ltim":2532,"Ġdiv":2533,"Ġmanag":2534,"Ġaspir":2535,"ĠOpening":2536,"Ġbro":2537,"alu":2538,"Ġliving":2539,"Ġperform":2540,"Ġconnecting":2541,"Ġschedule":2542,"Ġproactive":2543,"Ġpossibility":2544,"Ġcompassionate":2545,"new":2546,"Ġdeserving":2547,"Ġsuggestion":2548,"Ġstem":2549,"rass":2550,"Ġvoice":2551,"Ġla":2552,"Ġputting":2553,"Ġchoices":2554,"Ġembarrass":2555,"Ġdemand":2556,"Ġled":2557,"Ġobst":2558,"Ġexplored":2559,"Ġtransformative":2560,"ĠSur":2561,"Ġcir":2562,"Ġharmon":2563,"Ġbecomes":2564,"Ġaltern":2565,"Ġideas":2566,"pping":2567,"ĠAddiction":2568,"Ġobstac":2569,"ĠLately":2570,"Ġnumb":2571,"ĠInst":2572,"Ġimpacted":2573,"Ġsaid":2574,"Ġold":2575,"Ġcouldn":2576,"Ġcourageous":2577,"ĠSurround":2578,"Ġestablish":2579,"Ġactive":2580,"cy":2581,"isor":2582,"Ġempowering":2583,"Ġassert":2584,"Ġachieving":2585,"Ġdeadlines":2586,"laim":2587,"Ġstarts":2588,"Ġgather":2589,"Ġattempt":2590,"Ġimmense":2591,"Ġpan":2592,"Ġefforts":2593,"Ġnothing":2594,"Ġparenting":2595,"Ġkindness":2596,"Ġgives":2597,"gr":2598,"urance":2599,"Ġweek":2600,"Ġreclaim":2601,"Ġonline":2602,"ĠLosing":2603,"Ġtalked":2604,"Ġmess":2605,"Ġcapable":2606,"going":2607,"ĠInstead":2608,"ĠFor":2609,"Ġarea":2610,"Ġsuccessful":2611,"Ġdepress":2612,"Ġpresence":2613,"Ġprodu":2614,"One":2615,"Ġupl":2616,"If":2617,"conf":2618,"Ġoptim":2619,"Ġcloud":2620,"Ġbalan":2621,"Ġvictories":2622,"Ġpattern":2623,"Ġbrighter":2624,"Ġinsecure":2625,"perv":2626,"Ġpromot":2627,"Ġbook":2628,"Ġlim":2629,"Ġfiance":2630,"Ġfrustrated":2631,"Ġrecomm":2632,"Ġplease":2633,"Ġbul":2634,"Ġpu":2635,"Ġfeed":2636,"Ġperceive":2637,"Ġrun":2638,"Ġbetrayal":2639,"arge":2640,"Ġconnected":2641,"Ġcontributed":2642,"Ġreasons":2643,"Ġrecommend":2644,"Ġsuperv":2645,"Ġsurrounding":2646,"Ġblame":2647,"Ġaffirm":2648,"ĠTrust":2649,"Ġsaying":2650,"onse":2651,"exp":2652,"Ġty":2653,"Ġaspirations":2654,"Ġcertainly":2655,"Ġtou":2656,"Ġdesires":2657,"ĠFind":2658,"Ġstat":2659,"ged":2660,"Ġcall":2661,"Ġrealized":2662,"Ġrecent":2663,"unting":2664,"Ġphysically":2665,"ock":2666,"expression":2667,"Ġisolated":2668,"Ġongoing":2669,"eel":2670,"rom":2671,"Ġbu":2672,"Ġcloser":2673,"til":2674,"Ġmisunderstand":2675,"Ġdecisions":2676,"Ġbrave":2677,"Ġfiancee":2678,"igns":2679,"Ġmatters":2680,"aling":2681,"Ġdiscover":2682,"Ġavail":2683,"mind":2684,"ollow":2685,"Ġdedicated":2686,"Ġcommendable":2687,"Ġfinances":2688,"Ġlose":2689,"Ġmeant":2690,"ush":2691,"Ġdial":2692,"most":2693,"ltimately":2694,"love":2695,"arily":2696,"Ġcompare":2697,"ply":2698,"Ġterm":2699,"We":2700,"minded":2701,"Ġglim":2702,"Ġbother":2703,"Ġimplementing":2704,"Ġgrieve":2705,"ĠWith":2706,"Ġbreaking":2707,"Ġenh":2708,"Ġclient":2709,"Ġoc":2710,"ilt":2711,"ĠSeeking":2712,"Ġinside":2713,"Ġrese":2714,"Ġcreativity":2715,"rem":2716,"Ġdialog":2717,"Ġreason":2718,"itar":2719,"Ġupset":2720,"Ġfalling":2721,"Ġaccomplishments":2722,"Ġfu":2723,"Ġresponse":2724,"Ġreassuring":2725,"ĠOn":2726,"Ġnavigating":2727,"Ġworks":2728,"Ġopinions":2729,"Ġdirection":2730,"Ġkeeps":2731,"Ġdoubts":2732,"orthy":2733,"Ġdedication":2734,"yond":2735,"Ġcomb":2736,"Ġletting":2737,"aying":2738,"ages":2739,"ĠFeel":2740,"Ġbed":2741,"Ġshoulders":2742,"Ġinvolved":2743,"Ġdraining":2744,"Ġwish":2745,"Ġfostering":2746,"Ġdialogue":2747,"Ġguitar":2748,"Ġkeeping":2749,"Ġmood":2750,"Ġuncom":2751,"Ġperhaps":2752,"ĠRecogn":2753,"point":2754,"Ġeating":2755,"Ġnotice":2756,"tered":2757,"Ġfollow":2758,"Ġlif":2759,"ified":2760,"ĠSurrounding":2761,"mental":2762,"Ġsupervisor":2763,"Ġneglected":2764,"ised":2765,"Ġrelated":2766,"Ġuns":2767,"Ġassistance":2768,"Ġdescri":2769,"Ġcomparing":2770,"ured":2771,"Ġbalanced":2772,"ours":2773,"Ġavailable":2774,"Ġpriv":2775,"Ġacceptance":2776,"Ġbeyond":2777,"ĠSharing":2778,"Ġsimply":2779,"Ġisolation":2780,"Ġseeing":2781,"utr":2782,"Ġinform":2783,"Ġfaith":2784,"Ġlonging":2785,"ÂłÂł":2786,"Ġdelve":2787,"aves":2788,"arching":2789,"Ġspeak":2790,"Ġdaunting":2791,"Ġobstacles":2792,"Ġinade":2793,"Ġrecognizing":2794,"Ġinadequ":2795,"Ġminut":2796,"mer":2797,"Ġmanageable":2798,"Ġjudged":2799,"Ġdivorce":2800,"Ġfeedback":2801,"edly":2802,"Ġinsp":2803,"Ġcause":2804,"Ġadmit":2805,"eah":2806,"Ġwhole":2807,"raging":2808,"Ġrep":2809,"Ġrelease":2810,"Ġintent":2811,"Ġbehaviors":2812,"Ġplac":2813,"ither":2814,"Ġexhausted":2815,"Ġdiscussed":2816,"ĠRecognizing":2817,"Ġhabits":2818,"nel":2819,"Ġoutcome":2820,"Ġjealousy":2821,"Ġline":2822,"Ġbeauty":2823,"Ġscary":2824,"Ġpanic":2825,"Ġauthentic":2826,"Ġview":2827,"olves":2828,"Ġargument":2829,"Ġshat":2830,"Ġsubst":2831,"Yeah":2832,"Ġrealization":2833,"Ġvoid":2834,"Ġavoiding":2835,"Ġforget":2836,"Ġresonate":2837,"Ġstability":2838,"Ġsuff":2839,"Ġlasting":2840,"Ġdifferently":2841,"Ġunex":2842,"Ġrefram":2843,"Ġwants":2844,"found":2845,"izes":2846,"Ġasking":2847,"ructive":2848,"hens":2849,"Ġling":2850,"Ġrediscover":2851,"Ġdisappointed":2852,"raw":2853,"pting":2854,"Ġserve":2855,"oss":2856,"usi":2857,"air":2858,"Ġdespite":2859,"Ġreminder":2860,"ĠEvery":2861,"ished":2862,"Ġinternal":2863,"Ġdetermined":2864,"Ġdoct":2865,"Ġmentioned":2866,"Ġsupporting":2867,"Ġenth":2868,"happ":2869,"Ġenthusi":2870,"Ġoutlets":2871,"Maybe":2872,"Ġcirc":2873,"Ġaction":2874,"ĠAc":2875,"olog":2876,"Ġgrowing":2877,"ners":2878,"iment":2879,"Ġproviding":2880,"ceptance":2881,"unication":2882,"Ġnewfound":2883,"aj":2884,"Ġunhapp":2885,"Ġag":2886,"Ġalternative":2887,"Ġcheating":2888,"Ġlonger":2889,"ĠFinding":2890,"Ġstatements":2891,"hol":2892,"ughter":2893,"ception":2894,"Ġdark":2895,"Ġstaying":2896,"Ġfinally":2897,"Ġconfused":2898,"just":2899,"time":2900,"Ġshattered":2901,"Ġreassurance":2902,"Ġinteractions":2903,"cohol":2904,"Ġaffirmations":2905,"Ġhum":2906,"Ġwasn":2907,"Ġgoes":2908,"Ġacc":2909,"aware":2910,"Ġfl":2911,"Ġalmost":2912,"ational":2913,"Ġalive":2914,"Ġmet":2915,"ĠStart":2916,"Ġsl":2917,"Ġhit":2918,"Ġreconnecting":2919,"There":2920,"entr":2921,"Ġcaused":2922,"Ġexciting":2923,"old":2924,"Ġovercoming":2925,"ency":2926,"Ġleaving":2927,"Ġglimmer":2928,"cious":2929,"Ġchest":2930,"Ġaven":2931,"Thanks":2932,"Ġserious":2933,"ang":2934,"Ġidentifying":2935,"aly":2936,"Ġrequires":2937,"Ġdescribe":2938,"Ġbullying":2939,"Ġapproaches":2940,"No":2941,"Ġbothering":2942,"Ġvis":2943,"Ġunderstood":2944,"ĠBeing":2945,"Ġproject":2946,"Ġattending":2947,"gered":2948,"Ġconsistent":2949,"Ġcollaborative":2950,"ime":2951,"Ġtriggered":2952,"Ġdistant":2953,"Ġseen":2954,"Ġhours":2955,"ĠWhenever":2956,"tal":2957,"ef":2958,"Ġcontinu":2959,"aster":2960,"Ġenhance":2961,"Ġdepressed":2962,"asing":2963,"agn":2964,"Ġincluding":2965,"Ġpace":2966,"Ġund":2967,"Ġlik":2968,"Ġinvolves":2969,"Ġorder":2970,"Ġlearned":2971,"Ġfull":2972,"acceptance":2973,"Ġallowed":2974,"judg":2975,"amed":2976,"Ġsecond":2977,"Ġthemselves":2978,"Ġed":2979,"Ġsmaller":2980,"Ġreflection":2981,"reating":2982,"Ġstems":2983,"vable":2984,"Ġsleeping":2985,"Ġhonestly":2986,"Ġminutes":2987,"Ġz":2988,"err":2989,"Ġmanagement":2990,"Ġstruct":2991,"Ġpush":2992,"ĠOur":2993,"Ġunexpect":2994,"Ġgone":2995,"ken":2996,"Ġconcentr":2997,"ilit":2998,"ont":2999,"mission":3000,"Ġpermission":3001,"Ġeasier":3002,"Ġpin":3003,"Ġgard":3004,"Ġalcohol":3005,"Ġresolve":3006,"Ġhonesty":3007,"Ġedge":3008,"Ġusually":3009,"rable":3010,"confidence":3011,"Sure":3012,"ĠCelebrate":3013,"ĠUnderstand":3014,"ider":3015,"ze":3016,"ĠHealing":3017,"isf":3018,"atisf":3019,"Ġdistance":3020,"ios":3021,"Ġris":3022,"Ġpartners":3023,"Ġspouse":3024,"Ġnegat":3025,"yle":3026,"asm":3027,"Ġfresh":3028,"xiety":3029,"idd":3030,"Ġunf":3031,"Ġeither":3032,"ĠSet":3033,"ĠCons":3034,"Ġpinpoint":3035,"Ġfix":3036,"itive":3037,"Ġattack":3038,"Ġ1":3039,"ĠComm":3040,"Ġexplain":3041,"Ġdive":3042,"ĠEmbracing":3043,"Ġleads":3044,"Ġmisunderstandings":3045,"Ġlinear":3046,"Ġpar":3047,"Ġease":3048,"Ġintensify":3049,"pare":3050,"Ġshame":3051,"Ġcouple":3052,"cepting":3053,"kness":3054,"actly":3055,"Ġwondering":3056,"Ġsist":3057,"Ġneglecting":3058,"Ġshot":3059,"Ġheavily":3060,"Ġparticularly":3061,"owing":3062,"Ġrenew":3063,"initely":3064,"artbreak":3065,"Ġdar":3066,"Ġbuilt":3067,"Ġperfection":3068,"Ġinvolve":3069,"Ġprovided":3070,"Ġpractical":3071,"Ġhi":3072,"ĠHeartbreak":3073,"Ġwound":3074,"ĠSome":3075,"Ġwa":3076,"amily":3077,"Ġaffects":3078,"look":3079,"Ġmut":3080,"Ġprivile":3081,"Ġsister":3082,".\"":3083,"Ġpushing":3084,"nter":3085,"Ġbusy":3086,"term":3087,"Ġenthusiasm":3088,"Ġque":3089,"Ġimposs":3090,"Ġdarkness":3091,"Ġadjust":3092,"Ġworthy":3093,"Ġmanner":3094,"efinitely":3095,"Ġprivilege":3096,"entially":3097,"ajor":3098,"Ġabsolutely":3099,"Ġign":3100,"Ġpositively":3101,"hamed":3102,"elling":3103,"Ġtouch":3104,"Ġashamed":3105,"here":3106,"ided":3107,"Ġdue":3108,"ides":3109,"Ġquick":3110,"Ġreading":3111,"ved":3112,"ian":3113,"Ġtook":3114,"Ġrange":3115,"Ġobs":3116,"Ġteam":3117,"Ġfun":3118,"Ġtold":3119,"Ġhurtful":3120,"awareness":3121,"Ġembarrassed":3122,"Ġimpossible":3123,"pro":3124,"Ġempathe":3125,"came":3126,"abilities":3127,"Ġinformation":3128,"ĠAll":3129,"Ġrenewed":3130,"Ġinstances":3131,"Ġspirit":3132,"Ġremain":3133,"Ġmissing":3134,"Ġfamil":3135,"umst":3136,"Ġcircumst":3137,"Ġreflecting":3138,"Ġconfusion":3139,"Ġcommunicating":3140,"talk":3141,"Ġequ":3142,"Ġdi":3143,"earn":3144,"Ġcatch":3145,"Ġfuel":3146,"Ġcurrently":3147,"Definitely":3148,"ures":3149,"Ġfight":3150,"Ġdistractions":3151,"Ġmedia":3152,"Ġpotentially":3153,"Ġactivity":3154,"Ġsou":3155,"Ġhearing":3156,"ĠChange":3157,"Ġunsure":3158,"Ġmajor":3159,"Ġupd":3160,"Ġapprehens":3161,"Ġempt":3162,"Ġholds":3163,"irable":3164,"Ġuntil":3165,"Ġpersist":3166,"Ġattract":3167,"Ġshock":3168,"Ġheaviness":3169,"Ġconstructive":3170,"Ġachie":3171,"ĠCreating":3172,"Ġbad":3173,"Ġuplift":3174,"ĠJust":3175,"ord":3176,"eless":3177,"Ġtrack":3178,"Ġbas":3179,"ĠOf":3180,"Ġemptiness":3181,"Ġbecame":3182,"ĠAcknowled":3183,"not":3184,"Ġintegr":3185,"Ġaren":3186,"Ġdependence":3187,"ising":3188,"Ġunhe":3189,"ĠUnderstanding":3190,"Ġaccomplishment":3191,"Ġchannel":3192,"Ġunable":3193,"sp":3194,"Ġracing":3195,"ĠTell":3196,"Ġwanting":3197,"Ġhappier":3198,"ĠFamily":3199,"Ġindepend":3200,"judgmental":3201,"ocating":3202,"Ġempathetic":3203,"Ġdisagreements":3204,"Ġtechnique":3205,"Ġcelebrating":3206,"Ġoption":3207,"Ġcircumstances":3208,"Ġchap":3209,"Ġchapter":3210,"Ġentire":3211,"Ġachievable":3212,"Ġaccomp":3213,"Ġaccepting":3214,"Ġpubl":3215,"Ġharder":3216,"Ġfrequ":3217,"Ġunres":3218,"Ġincident":3219,"Ġimmed":3220,"Ġempty":3221,"Ġterms":3222,"Ġdisconnected":3223,"Ġbarri":3224,"Ġmult":3225,"Ġsoul":3226,"Ġadmirable":3227,"gan":3228,"Ġdoctor":3229,"epression":3230,"Ġfit":3231,"Ġaddition":3232,"Ġharmonious":3233,"Ġey":3234,"Ġturned":3235,"Ġended":3236,"Ġunresolved":3237,"lus":3238,"Ġtest":3239,"Ġcovered":3240,"Ġidentity":3241,"Ġcultivating":3242,"Ġunco":3243,"Ġfat":3244,"Ġmutual":3245,"Ġdefensiveness":3246,"aris":3247,"Ġkid":3248,"Ġroad":3249,"Ġfore":3250,"Ġcha":3251,"Ġleast":3252,"Ġanswers":3253,"Ġcreated":3254,"Ġroll":3255,"oken":3256,"Ġmedication":3257,"Ġavenues":3258,"Ġspark":3259,"Ġresist":3260,"avering":3261,"Ġunwavering":3262,"gust":3263,"Ġcomprom":3264,"Ġste":3265,"ĠFirst":3266,"ceed":3267,"riting":3268,"Ġcapt":3269,"Ġseemed":3270,"ĠEven":3271,"dden":3272,"Ġsudden":3273,"oubting":3274,"osed":3275,"ĠCommunication":3276,"ĠAnxiety":3277,"Ġslowly":3278,"ĠSetting":3279,"Ġorgan":3280,"Ġwrite":3281,"Ġdefined":3282,"Ġworrying":3283,"Ġroller":3284,"Ġinterested":3285,"Ġunknow":3286,"Ġbased":3287,"Ġgets":3288,"Ġmedical":3289,"Ġhopeless":3290,"Ġdemands":3291,"Ġneutr":3292,"Ġsatisf":3293,"Ġdifficulties":3294,"ych":3295,"Ġneutral":3296,"Ġemotion":3297,"ĠAcknowledging":3298,"Ġtyp":3299,"Ġultimately":3300,"Ġtelling":3301,"Ġspecializes":3302,"Ġconsumed":3303,"Ġbringing":3304,"Ġlimit":3305,"Ġremark":3306,"Ġoptimistic":3307,"ronic":3308,"Ġoccur":3309,"Ġdisgust":3310,"Ġcry":3311,"Ġcreep":3312,"ournal":3313,"Ġoffering":3314,"Ġdoubting":3315,"indfulness":3316,"Ġbenefit":3317,"Ġtense":3318,"aming":3319,"cr":3320,"Ġfatig":3321,"onnecting":3322,"acing":3323,"Ġleaves":3324,"Ġchoose":3325,"Ġrejected":3326,"Ġwounds":3327,"has":3328,"Ġsolid":3329,"Ġdistracted":3330,"ournaling":3331,"Ġfacilit":3332,"Ġhuman":3333,"Ġpaint":3334,"Ġunexpected":3335,"ring":3336,"Ġitself":3337,"ents":3338,"Ġvalued":3339,"Ġremarkable":3340,"Ġfig":3341,"Ġunhappy":3342,"Ġhoping":3343,"Ġbroken":3344,"Ġunknown":3345,"count":3346,"ises":3347,"Ġadmire":3348,"Ġwithd":3349,"Ġstrategy":3350,"Ġspoken":3351,"bject":3352,"Ġdiscussions":3353,"inting":3354,"Ġsmallest":3355,"Ġmulti":3356,"Ġiniti":3357,"Ġcount":3358,"alking":3359,"Ġcombination":3360,"do":3361,"Ġpie":3362,"Ġexactly":3363,"Ġmil":3364,"Ġprovides":3365,"Ġartistic":3366,"ĠAlong":3367,"Ġshown":3368,"Ġclosure":3369,"ognitive":3370,"Ġalongside":3371,"Ġinteresting":3372,"ins":3373,"oration":3374,"unt":3375,"Ġ3":3376,"Ġcares":3377,"Ġsurprised":3378,"Ġcraving":3379,"Ġaligns":3380,"Ġgrieving":3381,"Ġroom":3382,"Ġrech":3383,"Ġgreater":3384,"ĠDepression":3385,"Ġresilient":3386,"ulty":3387,"ĠFear":3388,"ĠMindfulness":3389,"Ġagainst":3390,"ount":3391,"Ġburdening":3392,"ists":3393,"ifest":3394,"Ġboss":3395,"Ġadds":3396,"sych":3397,"Ġwat":3398,"Ġmultiple":3399,"ĠJournaling":3400,"Th":3401,"Ġlikely":3402,"coaster":3403,"Ġhind":3404,"aluable":3405,"Ġaccount":3406,"Ġdirectly":3407,"Ġkids":3408,"Ġconse":3409,"Ġmanifest":3410,"Ġinvaluable":3411,"where":3412,"Ġsever":3413,"Ġbetrayed":3414,"Ġemphas":3415,"Ġantic":3416,"ath":3417,"Ġanticip":3418,"Ġmilest":3419,"Ġplans":3420,"ross":3421,"Ġmedi":3422,"Ġrollercoaster":3423,"Ġprofessionals":3424,"Ġrecharge":3425,"Ġreplaying":3426,"Ġreactions":3427,"Ġends":3428,"Ġpriority":3429,"Ġintentions":3430,"ones":3431,"Ġrev":3432,"Ġwall":3433,"Ġwalking":3434,"onging":3435,"Ġchoice":3436,"Ġtrem":3437,"Ġgardening":3438,"Ġtherapists":3439,"atic":3440,"inking":3441,"Ġsurrounded":3442,"ctually":3443,"Ġadult":3444,"Ġdrained":3445,"ching":3446,"Ġresonates":3447,"Ġaccompany":3448,"Ġsit":3449,"Ġrein":3450,"ieties":3451,"idating":3452,"Ġhiking":3453,"Ġluck":3454,"Ġproductive":3455,"Ġapprehensive":3456,"Ġwhatever":3457,"Ġdrown":3458,"oubtedly":3459,"Ġundoubtedly":3460,"Ġchaos":3461,"Ġintimacy":3462,"ĠWriting":3463,"Ġbelonging":3464,"Ġwake":3465,"Ġmor":3466,"Ġpick":3467,"rupt":3468,"entment":3469,"ably":3470,"epar":3471,"Ġanxieties":3472,"Ġbrain":3473,"Ġdiscovered":3474,"Ġgener":3475,"Ġupdated":3476,"arah":3477,"for":3478,"Ġanswer":3479,"Ġinspire":3480,"place":3481,"Ġregularly":3482,"Ġarguing":3483,"Ġdest":3484,"Ġclearly":3485,"Ġthrive":3486,"Ġtail":3487,"Ġcher":3488,"Ġquickly":3489,"Ġsoon":3490,"ĠDon":3491,"Ġsepar":3492,"Ġmother":3493,"Ġdev":3494,"Ġgrounding":3495,"Ġlift":3496,"ction":3497,"oney":3498,"Ġcond":3499,"Ġprepare":3500,"Ġempathi":3501,"Ġsubstances":3502,"ape":3503,").":3504,"ened":3505,"ĠAt":3506,"ĠConf":3507,"iddle":3508,"Ġfatigue":3509,"Ġuncover":3510,"Ġmiddle":3511,"Ġdiscussion":3512,"Ġjud":3513,"Ġphone":3514,"Ġwrit":3515,"angu":3516,"ĠConsider":3517,"Ġfacilitate":3518,"ĠSarah":3519,"eld":3520,"Ġsuper":3521,"Ġsupported":3522,"ĠTalking":3523,"Actually":3524,"Ġevidence":3525,"Ġpromote":3526,"Ġzone":3527,"alth":3528,"illed":3529,"Ġrely":3530,"fully":3531,"Ġseveral":3532,"Ġupon":3533,"ĠAnother":3534,"Ġdifficulty":3535,"Ġperception":3536,"Ġworkplace":3537,"Ġstories":3538,"Ġlessons":3539,"Ġtremend":3540,"Ġisolating":3541,"Ġshape":3542,"Ġintensity":3543,"Ġhappens":3544,"Ġexperiment":3545,"ensit":3546,"Ġguard":3547,"Ġinclude":3548,"Ġlifest":3549,"Ġpersonally":3550,"Ġconcentrate":3551,"Ġmidst":3552,"Ġdrowning":3553,"Ġdisagreement":3554,"Ġblaming":3555,"Ġcomparis":3556,"How":3557,"irr":3558,"Ġstepping":3559,"Ġdecide":3560,"Ġhouse":3561,"Ġtremendous":3562,"Ġclasses":3563,"Ġforgiveness":3564,"Ġincrease":3565,"Ġmeantime":3566,"Ġdaughter":3567,"Ġsources":3568,"Ġcommunities":3569,"stain":3570,"Ġdad":3571,"Ġbrush":3572,"Ġempower":3573,"Ġestablishing":3574,"Ġ2":3575,"Ġlifestyle":3576,"Ġrelieved":3577,"ator":3578,"Ġrediscovering":3579,"ug":3580,"ĠStay":3581,"Ġpsych":3582,"Ġagree":3583,"Ġhonored":3584,"Ġlangu":3585,"Ġhur":3586,"Ġsustain":3587,"face":3588,"Ġdw":3589,"When":3590,"Ġconscious":3591,"ences":3592,"Ġbrid":3593,"ointing":3594,"In":3595,"Ġmoney":3596,"ĠTheir":3597,"Ġworst":3598,"ike":3599,"Ġred":3600,"Ġappear":3601,"Ġgradual":3602,"rough":3603,"Ġvalidate":3604,"Ġmessage":3605,"Ġwarm":3606,"adow":3607,"mon":3608,"--":3609,"Ġstory":3610,"Ġreminds":3611,"Ġlate":3612,"Ġreclaiming":3613,"Ġintimidating":3614,"Ġconsuming":3615,"vious":3616,"Ġsuffocating":3617,"edom":3618,"ĠOpen":3619,"Ġpositivity":3620,"Ġdisappointing":3621,"Ġsucceed":3622,"Ġopenness":3623,"Ġconsequ":3624,"Ġeveryday":3625,"Ġdecided":3626,"ale":3627,"Ġfreedom":3628,"Ġregardless":3629,"Ġbenefits":3630,"Ġshowing":3631,"ager":3632,"Ġoutlook":3633,"ancing":3634,"Ġwithdraw":3635,"Ġlies":3636,"Ġbusiness":3637,"Ġinadequate":3638,"Ġfood":3639,"Ġheadaches":3640,"Ġrepe":3641,"Ġcalming":3642,"ĠV":3643,"Ġsecure":3644,"Ġcompl":3645,"curity":3646,"Ġinfluences":3647,"Of":3648,"Ġstructured":3649,"Ġapproaching":3650,"iticism":3651,"Ġdiagn":3652,"Ġsens":3653,"Ġturning":3654,"Ġhurts":3655,"Ġimage":3656,"Ġ.":3657,"Ġmeasure":3658,"Ġchronic":3659,"Ġempathize":3660,"Ġfell":3661,"anging":3662,"Ġregretful":3663,"Ġpromise":3664,"Ġrecur":3665,"Ġscen":3666,"Ġaddict":3667,"ament":3668,"Ġmentally":3669,"Ġtailored":3670,"Ġinfluenced":3671,"ove":3672,"ainting":3673,"Ġsaf":3674,"ĠConflict":3675,"Ġplaces":3676,"Ġescalate":3677,"Ġexhaustion":3678,"Ġattempted":3679,"Ġdiscouragement":3680,"iar":3681,"ifies":3682,"Ġconflicting":3683,"Ġhist":3684,"Ġstandard":3685,"avor":3686,"ying":3687,"usive":3688,"ww":3689,"Ġaw":3690,"oral":3691,"Ġfault":3692,"Ġcannot":3693,"Ġuncomfort":3694,"Ġlingering":3695,"Ġuncommon":3696,"Ġconsequences":3697,"Ġmorning":3698,"Ġlay":3699,"Ġtopics":3700,"need":3701,"Ġdistraction":3702,"Ġexpected":3703,"Ġuncomfortable":3704,"Ġreframing":3705,"Ġresponsible":3706,"ressing":3707,"Ġattitude":3708,"Ġdisgusted":3709,"Ġeventually":3710,"Ġexploration":3711,"Ġresearching":3712,"Ġsecurity":3713,"mo":3714,"ĠReach":3715,"Ġterr":3716,"Ġnour":3717,"Ġwouldn":3718,"Ġreceived":3719,"Ġrom":3720,"Ġrecall":3721,"Ġabsence":3722,"Ġbeginning":3723,"ĠSh":3724,"she":3725,"Ġdam":3726,"gest":3727,"Ġbridge":3728,"Ġintr":3729,"Ġcognitive":3730,"ĠĠĠ":3731,"ĠAllow":3732,"Ġcheck":3733,"Ġampl":3734,"Ġstressors":3735,"Ġhistory":3736,"Ġpict":3737,"Ġamount":3738,"Ġweeks":3739,"ĠFriend":3740,"Ġbott":3741,"part":3742,"Ġpossess":3743,"Ġworksh":3744,"Ġworkshop":3745,"Ġempowered":3746,"Ġnegativity":3747,"Ġhadn":3748,"Ġbiggest":3749,"Ġjoin":3750,"Ġsays":3751,"Ġresearch":3752,"Ġdetail":3753,"Ġrecurring":3754,"Ġdifferences":3755,"Ġunre":3756,"earning":3757,"needed":3758,"uge":3759,"Ġgreatly":3760,"Ġoutcomes":3761,"Ġconsume":3762,"Ġhasn":3763,"Ġpret":3764,"criticism":3765,"Ġsensit":3766,"Ġlie":3767,"Ġparties":3768,"Ġbelieving":3769,"omp":3770,"iding":3771,"Ġdistressing":3772,"Ġleading":3773,"Ġromant":3774,"Ġcent":3775,"Ġadvent":3776,"Ġsuperi":3777,"Ġreminders":3778,"Ġcravings":3779,"Ġstud":3780,"Ġshouldn":3781,"Ġsil":3782,"ĠMany":3783,"ĠAny":3784,"Ġshifting":3785,"Ġcame":3786,"Ġplanning":3787,"Ġsuperiors":3788,"Ġideal":3789,"Ġsw":3790,"Ġcheated":3791,"Ġwhom":3792,"Ġencouraging":3793,"Ġtransit":3794,"Ġdedicating":3795,"Ġparty":3796,"Ġshocked":3797,"Ġproduct":3798,"Ġsystems":3799,"Ġdiscouraging":3800,"Ġinfluence":3801,"nderstood":3802,"Ġconsistently":3803,"Ġharmony":3804,"Ġresur":3805,"guess":3806,"Ġconcerned":3807,"Ġhealthcare":3808,"Ġstressful":3809,"Ġstrained":3810,"BT":3811,"val":3812,"how":3813,"Ġprove":3814,"Ġtransformation":3815,"oci":3816,"building":3817,"mos":3818,"Ġshap":3819,"Ġsearching":3820,"Ġromantic":3821,"ature":3822,"Ġmisunderstood":3823,"Ġseriously":3824,"Ġfigure":3825,"Ġdemanding":3826,"ars":3827,"Ġsib":3828,"Ġvers":3829,"Ġforever":3830,"Ġbooks":3831,"ĠFeeling":3832,"Ġdisor":3833,"Ġscenar":3834,"icious":3835,"Ġtriggering":3836,"Ġmarried":3837,"riorit":3838,"Ġunfold":3839,"This":3840,"Ġsought":3841,"Ġperformance":3842,"Ġheated":3843,"Ġprocessing":3844,"Ġatmos":3845,"Ġatmosp":3846,"ĠPainting":3847,"Ġparticip":3848,"Ġatmosphere":3849,"night":3850,"Ġaband":3851,"Ġinstru":3852,"ĠPriorit":3853,"ĠBreaking":3854,"uth":3855,"itical":3856,"Ġgrip":3857,"ird":3858,"Ġreaction":3859,"Ġinadequacy":3860,"What":3861,"Ġattempts":3862,"Ġexpressed":3863,"action":3864,"Ġquiet":3865,"Ġdrifting":3866,"Ġtruth":3867,"For":3868,"Ġthoughtful":3869,"light":3870,"Ġhanging":3871,"Ġfearing":3872,"othing":3873,"Ġmainly":3874,"Ġwrap":3875,"Ġchanged":3876,"Ġclu":3877,"aged":3878,"Ġoversh":3879,"ĠEmbrace":3880,"arable":3881,"Ġencounter":3882,"Ġfather":3883,"Ġinvesting":3884,"Ġinspiration":3885,"Ġthree":3886,"Ġfront":3887,"Ġprevious":3888,"ifying":3889,"ĠRel":3890,"Ġreducing":3891,"Ġopinion":3892,"Ġliber":3893,"Ġgap":3894,"ĠRight":3895,"Ġenjoying":3896,"Ġreframe":3897,"Ġdeepen":3898,"Ġflow":3899,"Ġworked":3900,"Ġassoci":3901,"Ġinvolving":3902,"Ġmostly":3903,"Ġsuggesting":3904,"Ġrespectful":3905,"Ġdiet":3906,"They":3907,"Ġsort":3908,"Ġstandards":3909,"Ġovernight":3910,"ĠWork":3911,"ĠPractic":3912,"Ġtravel":3913,"ĠIm":3914,"io":3915,"imin":3916,"Ġapolog":3917,"Ġperse":3918,"Ġirr":3919,"Ġleap":3920,"Ġearly":3921,"Ġdependent":3922,"ploy":3923,"Ġfailing":3924,"Ġcreates":3925,"Ġwom":3926,"rawn":3927,"Ġproductivity":3928,"Ġreward":3929,"oneliness":3930,"ĠTry":3931,"Ġloop":3932,"oga":3933,"iling":3934,"Ġentirely":3935,"Ġexist":3936,"Ġcomplete":3937,"Ġworkshops":3938,"Ġrunning":3939,"ĠCelebrating":3940,"ĠStarting":3941,"),":3942,"Ġgrounded":3943,"duc":3944,"onst":3945,"Ġtrusting":3946,"Ġcurios":3947,"Ġmistake":3948,"Ġvulnerabilities":3949,"Ġsigns":3950,"Ġassum":3951,"Ġdeveloped":3952,"havi":3953,"Ġincreased":3954,"Ġwaiting":3955,"Ġdiscovering":3956,"read":3957,"Ġtype":3958,"Ġsoc":3959,"ĠThen":3960,"ope":3961,"ceiving":3962,"Ġexpert":3963,"oving":3964,".,":3965,"Ġmend":3966,"Ġtor":3967,"Ġreplace":3968,"Ġsuccesses":3969,"Ġidentified":3970,"Ġshut":3971,"Ġpaths":3972,"Ġvol":3973,"Ã©":3974,"Ġtalent":3975,"Ġcuriosity":3976,"ĠSu":3977,"Ġworthless":3978,"Ġextra":3979,"alistic":3980,"partner":3981,"ÂłÂłÂłÂł":3982,"Ġpay":3983,"Ġdwelling":3984,"Ġur":3985,"Ġenjoyed":3986,"Ġnum":3987,"Ġcompromise":3988,"ĠLoneliness":3989,"Ġsight":3990,"Ġoptimism":3991,"Ġredirect":3992,"Ġselfish":3993,"Ġinitiate":3994,"Ġcomparison":3995,"Ġgrand":3996,"Ġsensitive":3997,"Ġsli":3998,"Ġmeetings":3999,"Ġfulfilled":4000,"Ġstruggled":4001,"Ġforce":4002,"Ġdevast":4003,"ĠPlus":4004,"Ġunrealistic":4005,"Ġcompan":4006,"Ġsexuality":4007,"Ġoutdo":4008,"hor":4009,"Ġextrem":4010,"Ġincreasing":4011,"though":4012,"Ġcor":4013,"ĠSince":4014,"Ġexpens":4015,"ĠAlongside":4016,"Ġintention":4017,"Ġawareness":4018,"cup":4019,"Ġhuge":4020,"Ġcaring":4021,"Ġeffects":4022,"Ġaccus":4023,"Ġtypically":4024,"row":4025,"Ġexpression":4026,"ĠRebuilding":4027,"Ġmuscle":4028,"Ġplays":4029,"icking":4030,"Ġjudge":4031,"Ġopened":4032,"law":4033,"ledge":4034,"ĠThrough":4035,"Ġpressures":4036,"body":4037,"Ġtearing":4038,"Ġresults":4039,"Ġindividually":4040,"Ġvisual":4041,"icate":4042,"Ġhopes":4043,"Ġovershadow":4044,"Ġknew":4045,"Ġturmo":4046,"Ġturmoil":4047,"ĠNo":4048,"Ġtorn":4049,"Ġunwind":4050,"Ġplayed":4051,"vas":4052,"ĠNature":4053,"Ġclosest":4054,"Ġfrequent":4055,"Ġmod":4056,"Ġyoga":4057,"Ġeyes":4058,"Ġrecept":4059,"havioral":4060,"Ġtemporarily":4061,"apt":4062,"Ġletter":4063,"Ġrisks":4064,"Ġproper":4065,"Ġsomehow":4066,"Ġpassionate":4067,"Ġknowledge":4068,"Ġacross":4069,"Ġprim":4070,"Ġgrasp":4071,"osure":4072,"Ġbegan":4073,"Ġrelying":4074,"Ġegg":4075,"hedul":4076,"Ġbroke":4077,"Ġcolors":4078,"ĠDe":4079,"Ġbelieved":4080,"Ġevident":4081,"Ġsong":4082,"ĠPlease":4083,"Ġbud":4084,"Ġemer":4085,"Ġimmediate":4086,"Ġinspired":4087,"ĠâĢ":4088,"Ġpul":4089,"acking":4090,"image":4091,"Ġtask":4092,"lls":4093,"Ġinsightful":4094,"Ġsignificantly":4095,"Ġuplifting":4096,"erse":4097,"Ġlistener":4098,"Ġpublic":4099,"Ġcapac":4100,"Ġtight":4101,"Ġret":4102,"shells":4103,"Ġeggshells":4104,"Ġwis":4105,"ocate":4106,"Ġheld":4107,"Ġbreakd":4108,"Ġcleare":4109,"ĠRelationship":4110,"Ġheight":4111,"Ġsing":4112,"Ġdevelopment":4113,"Ġperceived":4114,"felt":4115,"Ġdear":4116,"cking":4117,"Ġsupports":4118,"Ġheartfelt":4119,"Ġtransition":4120,"Ġnews":4121,"ĠExp":4122,"Ġdraw":4123,"Ġtap":4124,"Ġcompre":4125,"ĠEach":4126,"Ġrisk":4127,"Ġgeneral":4128,"Ġreceptive":4129,"Ġchanging":4130,"ket":4131,"Ġcovers":4132,"Ġinitiating":4133,"Ġcapacity":4134,"Ġpicture":4135,"ĠConnecting":4136,"orking":4137,"Ġpersonalized":4138,"Ġhelpless":4139,"ĠReflect":4140,"Ġsuddenly":4141,"althy":4142,"Ġversion":4143,"Ġposition":4144,"Ġachieved":4145,"Ġemploy":4146,"Ġcontact":4147,"Ġclearer":4148,"Ġdedicate":4149,"ulate":4150,"ĠInc":4151,"ety":4152,"Ġexh":4153,"rely":4154,"Ġeager":4155,"Ġappet":4156,"Ġreign":4157,"Ġhonoring":4158,"Ġsubject":4159,"onstr":4160,"Ġattacks":4161,"Ġincap":4162,"ĠAlso":4163,"Ġbarrier":4164,"Ġ4":4165,"Ġappetite":4166,"ĠFocus":4167,"Ġincapable":4168,"Ġing":4169,"Ġimmerse":4170,"Ġbasic":4171,"Ġinitial":4172,"Ġindependence":4173,"Ġfreely":4174,"Ġflaw":4175,"ants":4176,"Ġpieces":4177,"mm":4178,"Ġimmers":4179,"Ġexpenses":4180,"Ġworthiness":4181,"Ġill":4182,"Ġexpand":4183,"Ġdemonstr":4184,"fortun":4185,"nger":4186,"Ġendless":4187,"Ġvicious":4188,"Ġbreathe":4189,"itable":4190,"Ġcompany":4191,"ery":4192,"ĠHey":4193,"lings":4194,"Ġcam":4195,"erve":4196,"erfect":4197,"Ġschedul":4198,"Ġrelate":4199,"Ġsiblings":4200,"Ġbreaths":4201,"ensely":4202,"Ġdismissed":4203,"Ġdesign":4204,"Ġthrilled":4205,"Ġunheard":4206,"by":4207,"Ġinitially":4208,"rew":4209,"Ġreci":4210,"Ġwait":4211,"ĠÂł":4212,"acer":4213,"Ġimmensely":4214,"Ġsac":4215,"ipped":4216,"Ġdig":4217,"Ġtrained":4218,"Ġbarriers":4219,"Ġreceiving":4220,"Ġclients":4221,"Ġtends":4222,"Ġcontinuous":4223,"Ġtack":4224,"ĠPro":4225,"Ġattend":4226,"Ġfamilies":4227,"ĠNot":4228,"Ġregaining":4229,"Ġlimitations":4230,"Ġexacer":4231,"Ġcompet":4232,"Ġsurprise":4233,"Ġexacerb":4234,"Ġfamiliar":4235,"Ġhinder":4236,"Ġsustainable":4237,"itions":4238,"ĠEst":4239,"Ġresentment":4240,"Ġgaining":4241,"Ġdiff":4242,"Ġ?":4243,"ffe":4244,"Ġwise":4245,"verance":4246,"Ġmindful":4247,"unte":4248,"ash":4249,"Ġpiling":4250,"Ġdrinking":4251,"Ġforgive":4252,"Ġbrother":4253,"Ġmilestone":4254,"Ġdriving":4255,"Ġyounger":4256,"the":4257,"Ġcheering":4258,"bal":4259,"Ġperseverance":4260,"ĠWhether":4261,"ĠLast":4262,"ĠCou":4263,"Ġdespair":4264,"Ġchar":4265,"Ġsatisfaction":4266,"Ġtreating":4267,"Ġfailed":4268,"Ġcalmly":4269,"Ġsimpl":4270,"Ġassertive":4271,"iately":4272,"ĠRelationships":4273,"Ġsafety":4274,"ĠOver":4275,"Ġtraumatic":4276,"esp":4277,"Ġcanvas":4278,"Ġbudget":4279,"Ġimmediately":4280,"Ġexcel":4281,"Ġturns":4282,"Ġacknowledged":4283,"Ġcapabilities":4284,"ĠHope":4285,"Ġtu":4286,"cons":4287,"Ġembarking":4288,"ips":4289,"Ġbigger":4290,"Ġmediator":4291,"rific":4292,"Ġnoticing":4293,"Ġdisorder":4294,"Ġcounter":4295,"Ġparaly":4296,"Ġhy":4297,"Ġcondition":4298,"ump":4299,"Ġstands":4300,"Al":4301,"Ġpriorities":4302,"oke":4303,"ched":4304,"Ġdefe":4305,"Ġhurting":4306,"Ġage":4307,"Your":4308,"ĠComp":4309,"Ġoffers":4310,"Ġescalated":4311,"Ġlighter":4312,"Ġcharge":4313,"eleg":4314,"Ġsto":4315,"Ġheartbreaking":4316,"Ġimprovement":4317,"Ġaccountable":4318,"Ġyoung":4319,"Ġrepair":4320,"Ġmine":4321,"Ġengaged":4322,"ĠIncorpor":4323,"Ġbrus":4324,"Ġintro":4325,"ĠUltimately":4326,"Ġtranqu":4327,"Ġadapt":4328,"Ġanytime":4329,"Ġthird":4330,"Ġseparate":4331,"Ġsides":4332,"eople":4333,"Ġlanguages":4334,"Ġunbe":4335,"Ġanticipate":4336,"ĠPrioritizing":4337,"Ġarises":4338,"Ġliberating":4339,"Sometimes":4340,"Ġoutdoors":4341,"acher":4342,"Ġsacrific":4343,"Ġmusician":4344,"anc":4345,"Ġeye":4346,"Ġauthentically":4347,"empl":4348,"Ġunbearable":4349,"xic":4350,"fter":4351,"Ġbonds":4352,"Ġevalu":4353,"Ġappreciated":4354,"ited":4355,"ronting":4356,"Ġwors":4357,"Ġexamples":4358,"asc":4359,"spect":4360,"ĠKn":4361,"čĊ":4362,"Ġappoint":4363,"Ġrevis":4364,"Ġbelie":4365,"Ġcow":4366,"Ġintegrate":4367,"Ġparts":4368,"Ġrock":4369,"Ġassertively":4370,"case":4371,"Ġdimin":4372,"Ġassertiveness":4373,"ĠGood":4374,"Ġnumbness":4375,"omfort":4376,"behavioral":4377,"Ġaddictive":4378,"ju":4379,"Ġson":4380,"Ġstrive":4381,"together":4382,"oun":4383,"Ġdiscomfort":4384,"ĠDuring":4385,"Ġemerge":4386,"ications":4387,"Ġteacher":4388,"Ġfighting":4389,"Ġassociated":4390,"Ġscares":4391,"Ġcowork":4392,"Ġstrengthening":4393,"Ġapproval":4394,"Ġrecognition":4395,"Ġfavor":4396,"bably":4397,"Ġpued":4398,"Ġslipping":4399,"Ġimperfect":4400,"Ġsoothing":4401,"Ġteen":4402,"?\"":4403,"Ġ5":4404,"Ġmixed":4405,"Ġunhealthy":4406,"ntil":4407,"Ġrul":4408,"ĠIncorporating":4409,"ugg":4410,"To":4411,"Ġserv":4412,"Ġcontempl":4413,"Ġgatherings":4414,"Ġdeleg":4415,"Ġimproved":4416,"Ġdrawn":4417,"Ġcut":4418,"Ġguy":4419,"Ġfair":4420,"Ġartic":4421,"Ġexercising":4422,"Ġcomplexities":4423,"Ġstructure":4424,"Ġinvested":4425,"ervations":4426,"ĠFirstly":4427,"Ġaccepted":4428,"Ġtranquility":4429,"anger":4430,"Ġperfectly":4431,"Ġtoxic":4432,"Ġdrive":4433,"Ġdeb":4434,"Ġconve":4435,"Ġsn":4436,"cupied":4437,"Ġende":4438,"Ġbelieves":4439,"lies":4440,"pri":4441,"Ġsaw":4442,"osis":4443,"ĠExc":4444,"Ġpreoc":4445,"Ġeduc":4446,"nding":4447,"Ġhandling":4448,"Ġlaughter":4449,"Ġvolunte":4450,"Ġshaped":4451,"Ġair":4452,"Ġwalls":4453,"Ġgave":4454,"Ġcontinuing":4455,"alyst":4456,"Ġru":4457,"ĠEstabl":4458,"alid":4459,"Ġtackle":4460,"Ġcore":4461,"ĠUntil":4462,"Ġscenarios":4463,"Ġspirits":4464,"Ġcase":4465,"Ġappreciation":4466,"She":4467,"Ġfailures":4468,"Ġreinfor":4469,"espite":4470,"Ġintervent":4471,"Ġextent":4472,"atives":4473,"Ġnervousness":4474,"ev":4475,"Ġrealizing":4476,"Ġfield":4477,"Ġcatalyst":4478,"Ġreminded":4479,"Ġnutr":4480,"Ġmeals":4481,"Ġfunction":4482,"Ġeasily":4483,"Ġfasc":4484,"Ġauthor":4485,"Ġachievement":4486,"Ġprojects":4487,"Ġextremely":4488,"Ġdecre":4489,"Ġet":4490,"As":4491,"perception":4492,"Ġsingle":4493,"Ġprepared":4494,"Ġpark":4495,"Ġpa":4496,"ned":4497,"Ġter":4498,"Ġcalled":4499,"force":4500,"Ġmessages":4501,"Ġensuring":4502,"ĠLearning":4503,"Ġcomments":4504,"Ġpreventing":4505,"Ġconfronting":4506,"ocused":4507,"Ġdistracting":4508,"ater":4509,"ĠOnce":4510,"Ġmotions":4511,"Ġlifted":4512,"Ġsubstance":4513,"bel":4514,"Ġplacing":4515,"of":4516,"Ġsurface":4517,"Ġpassed":4518,"Ġauthenticity":4519,"tt":4520,"Ġstorm":4521,"Ġwed":4522,"Ġtestament":4523,"priate":4524,"Ġeat":4525,"Ġpersistent":4526,"ĠHas":4527,"Ġreignite":4528,"Ġconvey":4529,"Ġmeth":4530,"Ġleg":4531,"Ġrecognized":4532,"Ġconfusing":4533,"Ġcolleague":4534,"ĠDeep":4535,"Ġrules":4536,"Ġupcoming":4537,"Ġnourish":4538,"man":4539,"Ġpave":4540,"Ġbrief":4541,"Ġaim":4542,"Ġlingers":4543,"Ġpretty":4544,"ĠBefore":4545,"Ġinfluencing":4546,"Ġcherish":4547,"Ġbreakdown":4548,"Ġgathering":4549,"ases":4550,"Ġnecessarily":4551,"ext":4552,"confront":4553,"Ġjugg":4554,"Ġexcess":4555,"Ġprimary":4556,"ĠStress":4557,"yles":4558,"hase":4559,"ĠReflecting":4560,"Ġmomentarily":4561,"Ġphase":4562,"Ġhighlight":4563,"Ġnear":4564,"oth":4565,"ĠHere":4566,"port":4567,"what":4568,"Ġextend":4569,"ravel":4570,"Ġsearch":4571,"Ġwaves":4572,"Ġreju":4573,"Ġvi":4574,"Ġrejuven":4575,"Ġfellow":4576,"Ġuncond":4577,"Ġarg":4578,"Ġimmersing":4579,"Ġloves":4580,"Ġforgot":4581,"asting":4582,"Oh":4583,"belief":4584,"Ġresistance":4585,"ervation":4586,"kend":4587,"Ġdisrupt":4588,"Ġcrying":4589,"Ġprobably":4590,"kind":4591,",\"":4592,"Ġskill":4593,"Ġimpacts":4594,"ĠPeople":4595,"confrontational":4596,"Ġweekend":4597,"Ġcritical":4598,"Ġta":4599,"Ġexposure":4600,"Ġargue":4601,"ding":4602,"Ġcriticized":4603,"ĠAr":4604,"Ġfollowing":4605,"Ġmethod":4606,"Ġadding":4607,"Ġreinforce":4608,"Ġpicking":4609,"Ġetc":4610,"Ġartists":4611,"ĠMoving":4612,"storm":4613,"ĠUn":4614,"zy":4615,"ĠReconnecting":4616,"redict":4617,"Ġknows":4618,"ane":4619,"Ġaltogether":4620,"Ġcalmness":4621,"esides":4622,"Ġtraumas":4623,"arming":4624,"Ġlau":4625,"Ġescalating":4626,"Ġlosses":4627,"Ġbear":4628,"ĠExpressing":4629,"Ġstyles":4630,"Ġforming":4631,"Ġdesper":4632,"Ġtied":4633,"Ġresurf":4634,"Ġfills":4635,"Ġstriving":4636,"Ġprogram":4637,"Ġdrug":4638,"Ġintimate":4639,"Ġmilestones":4640,"Ġwriter":4641,"Ġorig":4642,"lude":4643,"Ġsimplest":4644,"Ġbrainstorm":4645,"Ġindependent":4646,"Ġfascin":4647,"adem":4648,"Ġlimits":4649,"Ġstick":4650,"focused":4651,"ued":4652,"rible":4653,"Ġobject":4654,"Ġdiagnosis":4655,"ĠAlways":4656,"Ġcapturing":4657,"Ġaid":4658,"Ġresponses":4659,"Ġyours":4660,"ĠDespite":4661,"Ġclub":4662,"Ġutil":4663,"ĠMay":4664,"Ġignore":4665,"guessing":4666,"making":4667,"Ġadventure":4668,"Ġmen":4669,"Ġnegatively":4670,"Ġreservations":4671,"Ġpiece":4672,"Ġrewarding":4673,"comm":4674,"Ġlistens":4675,"ĠSocial":4676,"Ġgently":4677,"Ġtells":4678,"Ġsurv":4679,"Ġrespite":4680,"mare":4681,"Ġreplacing":4682,"Ġlaugh":4683,"ĠPare":4684,"ĠSupport":4685,"Ġstopped":4686,"Ġfavorite":4687,"ĠLastly":4688,"lessly":4689,"ĠMaking":4690,"Ġvent":4691,"Ġnaturally":4692,"Ġunhappiness":4693,"Ġmissed":4694,"giveness":4695,"Ġvoices":4696,"Ġfive":4697,"Ġmentors":4698,"Ġabusive":4699,"Ġamong":4700,"Ġroutines":4701,"An":4702,"Ġbeginner":4703,"Ġemphasizing":4704,"erson":4705,"Ġswe":4706,"Ġfianc":4707,"Ġcreeps":4708,"Ġrough":4709,"tainable":4710,"kes":4711,"Ġequipped":4712,"Ġpost":4713,"Ġincidents":4714,"Ġpsycholog":4715,"Ġshining":4716,"Ġflaws":4717,"Just":4718,"Ġmar":4719,"Ã³":4720,"Ġsec":4721,"Ġhor":4722,"Ġvib":4723,"Ġoverlook":4724,"Ġconfide":4725,"odies":4726,"Ġpap":4727,"Ġguided":4728,"Ġscheduling":4729,"Ġrecommendations":4730,"Ġuph":4731,"Ġpresentation":4732,"Ġnights":4733,"Ġtreated":4734,"Ġinstance":4735,"Ġemphasize":4736,"eline":4737,"ivating":4738,"Ġconv":4739,"rant":4740,"tling":4741,"Ġpoints":4742,"Ġmentor":4743,"Ġnobody":4744,"Ġacadem":4745,"Ġasked":4746,"Ġincludes":4747,"umble":4748,"Ġcomprehe":4749,"Ġresource":4750,"Ġcircle":4751,"Do":4752,"Ġwedding":4753,"Ġcapture":4754,"Ġrestore":4755,"ĠKnowing":4756,"Ġsal":4757,"Ġsea":4758,"Ġoneself":4759,"Ġconsult":4760,"Ġnowhere":4761,"Ġver":4762,"unch":4763,"Ġenjoyable":4764,"fulfill":4765,"Ġpet":4766,"Ġsignificance":4767,"ĠReg":4768,"Ġdetails":4769,"Ġindul":4770,"Ġillness":4771,"Ġoffe":4772,"ietal":4773,"Ġmoved":4774,"Ġhabit":4775,"ĠDevel":4776,"Ġplants":4777,"Ġpassing":4778,"Ġinvalid":4779,"Ġthemes":4780,"Ġunp":4781,"Ġsocietal":4782,"def":4783,"Ġshak":4784,"Ġcomprehend":4785,"Ġabandon":4786,"Ġland":4787,"Ġdepths":4788,"Ġstyle":4789,"Ġwatching":4790,"ook":4791,"Ġtherapies":4792,"Ġkn":4793,"Ġpaper":4794,"Ġleaning":4795,"Ġcompon":4796,"pple":4797,"Ġpour":4798,"Ġfine":4799,"Ġwave":4800,"Ġsuccessfully":4801,"iable":4802,"ĠEstablishing":4803,"Ġhar":4804,"idel":4805,"Ġassess":4806,"Ġhowever":4807,"Ġkinder":4808,"Ġdating":4809,"necess":4810,"Ġunravel":4811,"xual":4812,"Ġacts":4813,"Ġunnecess":4814,"Ġminds":4815,"ĠFin":4816,"Ġcontent":4817,"Ġcorner":4818,"Ġadded":4819,"Ġhopelessness":4820,"Ġsongs":4821,"Ġplanned":4822,"Ġbedtime":4823,"fortunately":4824,"ĠFrom":4825,"Ġartwork":4826,"usion":4827,"Ġheartw":4828,"Ġsent":4829,"Ġheartwarming":4830,"Ġuphill":4831,"Ġfrequently":4832,"Ġdevastating":4833,"rained":4834,"ĠPractice":4835,"Ġevolve":4836,"ruct":4837,"Ġspiral":4838,"Ġnightmare":4839,"pse":4840,"Ġunset":4841,"//":4842,"prove":4843,"Ġgrew":4844,"Ġdiffering":4845,"Ġrespected":4846,"Ġspent":4847,"ĠArt":4848,"Ġve":4849,"Ġdepressive":4850,"artic":4851,"pes":4852,"rat":4853,"Ġdetermine":4854,"Ġcred":4855,"Ġabove":4856,"Ġvictory":4857,"Ġadvocate":4858,"St":4859,"atory":4860,"Ġaccident":4861,"Ġer":4862,"Also":4863,"Ġroots":4864,"osit":4865,"Ġimagined":4866,"Ġcrow":4867,"ĠYes":4868,"ferences":4869,"Ġunnecessary":4870,"Ġisolate":4871,"Ġquit":4872,"ĠSeeing":4873,"ses":4874,"omn":4875,"Ġtang":4876,"Ġvalidated":4877,"Ġaddressed":4878,"Ġconclude":4879,"Ġdesired":4880,"erest":4881,"ician":4882,"Ġviol":4883,"Ġdeserves":4884,"Ġingrained":4885,"Ġalternatives":4886,"aching":4887,"ials":4888,"Ġheightened":4889,"improve":4890,"Ġcontentment":4891,"Ġperp":4892,"ĠExcellent":4893,"Ġri":4894,"Ġmi":4895,"Ġrepres":4896,"ote":4897,"\".":4898,"Ġrarely":4899,"Ġplate":4900,"Ġadjustments":4901,"view":4902,"ealing":4903,"improvement":4904,"blame":4905,"Ġbasis":4906,"Ġstable":4907,"Ġcompanions":4908,"herent":4909,"usic":4910,"Is":4911,"ender":4912,"Ġimpactful":4913,"Ġhang":4914,"Ġexperimenting":4915,"Ġbare":4916,"Ġinternalize":4917,"Ġinvis":4918,"ĠâĢĵ":4919,"Ġtroub":4920,"inct":4921,"working":4922,"ho":4923,"Ġrele":4924,"Ġoverth":4925,"Ġseep":4926,"Ġretur":4927,"Ġsorrow":4928,"Ġcontemplating":4929,"Ġwomen":4930,"Ġpromising":4931,"Ġdarkest":4932,"Ġencount":4933,"Ġinitiative":4934,"ĠParenting":4935,"cas":4936,"ivorce":4937,"Ġtalents":4938,"Ġeverywhere":4939,"Ġlacking":4940,"icated":4941,"pending":4942,"era":4943,"Ġsounding":4944,"Ġpaintbr":4945,"Ġwitnessing":4946,"Ġpreoccupied":4947,"Ġcountless":4948,"Ġtext":4949,"Ġartist":4950,"roll":4951,"ames":4952,"Ġrecon":4953,"Ġinvisible":4954,"Ġlater":4955,"Ġdrawing":4956,"Ġrecipro":4957,"izations":4958,"Ġyes":4959,"idelity":4960,"ĠDeveloping":4961,"Ġcooking":4962,"Ġcontext":4963,"Ġperpet":4964,"Ġinherent":4965,"uing":4966,"Ġbarely":4967,"ĠGreat":4968,"Ġyearn":4969,"ics":4970,"Ġinstinct":4971,"Ġtaught":4972,"Ġpushed":4973,"Ġknown":4974,"Ġkept":4975,"you":4976,"Ġfour":4977,"Ġlines":4978,"Ġinteraction":4979,"Ġvibrant":4980,"right":4981,"ĠHR":4982,"Ġprogressive":4983,"ffirm":4984,"Ġtun":4985,"Ġgrandm":4986,"Ġload":4987,"beat":4988,"idden":4989,"Ġinterventions":4990,"Ġintrig":4991,"rep":4992,"Ġunease":4993,"ingly":4994,"Ġmanaged":4995,"Ġappropriate":4996,"Ġsecret":4997,"Ġmiscomm":4998,"Ġredef":4999,"Ġden":5000,"Ġtreatments":5001,"Ġweighs":5002,"Ġpossibly":5003,"ĠEverything":5004,"Ġmour":5005,"Ġdeepest":5006,"Ġthreat":5007,"ĠOther":5008,"Ġstom":5009,"Ġfollows":5010,"ches":5011,"Ġdestination":5012,"hartic":5013,"Ġcathartic":5014,"Ġforms":5015,"Ġmisunderstanding":5016,"ĠGo":5017,"ĠHopefully":5018,"Ġpara":5019,"Ġhoped":5020,"Ġcentered":5021,"Ġshed":5022,"Ġunint":5023,"Ġparticipate":5024,"Ġsensations":5025,"Ġcheat":5026,"Ġamplify":5027,"Ġappointment":5028,"Ġstomach":5029,"Ġdelicate":5030,"inging":5031,"Ġmag":5032,"ĠRemind":5033,"Ġnice":5034,"Ġchoosing":5035,"Ġpicked":5036,"itional":5037,"Ġconfid":5038,"ties":5039,"Ġlanguage":5040,"hold":5041,"Ġcompanionship":5042,"Ġtests":5043,"umbled":5044,"Ġaccomplished":5045,"Ġyourselves":5046,"uses":5047,"Ġending":5048,"Ġdoors":5049,"Ġenjoyment":5050,"Ġnumber":5051,"ĠComparing":5052,"ctu":5053,"hir":5054,"ĠTrusting":5055,"rete":5056,"Ġhands":5057,"Ġnar":5058,"Ġimperfections":5059,"help":5060,"Ġword":5061,"ĠActive":5062,"illing":5063,"Ġobservation":5064,"ee":5065,"Ġconcrete":5066,"Ġminim":5067,"Ġpromotion":5068,"Ġcriticize":5069,"free":5070,"Ġdiminish":5071,"oted":5072,"Ġpreferences":5073,"Ġcreeping":5074,"vere":5075,"ĠLetting":5076,"Ġhidden":5077,"Ġrekind":5078,"reams":5079,"Ġcredit":5080,"ĠGrowing":5081,"ĠDivorce":5082,"Ġripple":5083,"Ġservices":5084,"Ġfund":5085,"Ġflour":5086,"Ġdoctors":5087,"://":5088,"ignific":5089,"Ġexpertise":5090,"covery":5091,"ans":5092,"Ġoccas":5093,"Ġsupposed":5094,"Ġsacrificing":5095,"Ġstage":5096,"Ġappearance":5097,"Ġlayers":5098,"Ġlands":5099,"ship":5100,"Ġunfulfill":5101,"ption":5102,"Ġtempt":5103,"ĠDid":5104,"Ġcounts":5105,"Ġurge":5106,"Ġthin":5107,"Ġweb":5108,"aces":5109,"Ġencouraged":5110,"rast":5111,"Ġdate":5112,"Ġdesignated":5113,"iant":5114,"ĠLike":5115,"Ġache":5116,"Ġparalyzing":5117,"ĠRes":5118,"Ġcarried":5119,"aby":5120,"Ġgarden":5121,"agement":5122,"conscious":5123,"Ġoffered":5124,"Ġcrave":5125,"Ġconsciously":5126,"iscovering":5127,"Ġgrace":5128,"Ġprovider":5129,"Ġjuggling":5130,"ĠMusic":5131,"Ġcontroll":5132,"Ġpaintbrush":5133,"Ġrush":5134,"ignificant":5135,"Ġconqu":5136,"Ġblow":5137,"Ġcomplicated":5138,"Ġfactor":5139,"tw":5140,"Ġcanc":5141,"Ġtunnel":5142,"Ġsub":5143,"Ġpublished":5144,"Ġcommunicated":5145,"outh":5146,"Ġexacerbate":5147,"Ġsuic":5148,"Ġappreciating":5149,"ĠReject":5150,"Ġovershadowed":5151,"ĠCult":5152,"Ġsitting":5153,"Ġspecialize":5154,"ache":5155,"ĊĠĠ":5156,"Ġrooted":5157,"ĠJo":5158,"Ġhurd":5159,"Ġrepeating":5160,"Ġmethods":5161,"Ġincome":5162,"Ġmotivate":5163,"Ġdrugs":5164,"Ġaccountability":5165,"Ġoffic":5166,"owth":5167,"Ġhousehold":5168,"ĠfiancÃ©":5169,"rene":5170,"avors":5171,"ĠCounsel":5172,"www":5173,"Ġvolunteering":5174,"Ġinterview":5175,"Ġi":5176,"Ġsurviv":5177,"Ġmagn":5178,"ĠBel":5179,"ph":5180,"Ġproperly":5181,"Ġtypes":5182,"Ġpursuit":5183,"Ġwand":5184,"Ġperiods":5185,"Ġincreasingly":5186,"iation":5187,"Ġbegins":5188,"Ġadjusting":5189,"Ġconflicted":5190,"Ġequally":5191,"Ġherself":5192,"ĠRecovery":5193,"versity":5194,"ground":5195,"Ġapologize":5196,"Ġcross":5197,"Ġfearful":5198,"Ġassign":5199,"Ġfrustrations":5200,"Ġobstacle":5201,"Ġdamage":5202,"Ġconsistency":5203,"Ġworsen":5204,"ĊĊ":5205,"reet":5206,"pow":5207,"rooted":5208,"ĠGu":5209,"Ġforgiving":5210,"Ġflood":5211,"Ġasleep":5212,"On":5213,"ppling":5214,"Ġmouth":5215,"Hmm":5216,"Ġgender":5217,"Ġtrip":5218,"Ġunsettling":5219,"Ġgained":5220,"Ġsupplies":5221,"Ġwithdrawing":5222,"put":5223,"Ġdescrib":5224,"ym":5225,"Ġhol":5226,"Ġuncertainties":5227,"Ġlend":5228,"ersonal":5229,"Ġsave":5230,"Ġplat":5231,"Ġdisconnection":5232,"react":5233,"Ġdiss":5234,"Ġabandonment":5235,"Ġattent":5236,"Ġcounselors":5237,"Be":5238,"Ġfire":5239,"Ġexpecting":5240,"Ġmill":5241,"inter":5242,"itual":5243,"Ġhate":5244,"ĠAlthough":5245,"Ġinfidelity":5246,"Ġcarve":5247,"ĠEmot":5248,"Ġpartnership":5249,"ĠCultivating":5250,"erving":5251,"Ġvisit":5252,"Ġinsignificant":5253,"fer":5254,"Ġinterp":5255,"dom":5256,"ĠWhy":5257,"Ġinsomn":5258,"Ġcontinues":5259,"Ġabandoned":5260,"Ġgame":5261,"Ġjump":5262,"ĠNe":5263,"Ġolder":5264,"Ġmedications":5265,"Ġexplan":5266,"Ġintertw":5267,"lied":5268,"cu":5269,"Ġreferr":5270,"icked":5271,"ĠTr":5272,"Ġtangible":5273,"Ġwellbeing":5274,"ean":5275,"ressive":5276,"ĠFusion":5277,"Ġtensions":5278,"ĠSeek":5279,"Ġoffice":5280,"raight":5281,"ĠEveryone":5282,"Ġintensified":5283,"lier":5284,"raum":5285,"rages":5286,"Ġmillion":5287,"Ġpor":5288,"Ġearlier":5289,"Ġevoke":5290,"Ġreciproc":5291,"ĠSpe":5292,"ĠDoes":5293,"Ġinvalidated":5294,"ĠAfter":5295,"Ġagre":5296,"Ġ20":5297,"Ã³n":5298,"Ġexcessive":5299,"lasting":5300,"ĠId":5301,"Ġgrandmother":5302,"Ġjoyful":5303,"Ġbre":5304,"Ġreasonable":5305,"Ġexplaining":5306,"----":5307,"Ġwoman":5308,"Ġupbeat":5309,"Ġunm":5310,"ĠOften":5311,"Ġresurface":5312,"Ġstumble":5313,"Ġboosting":5314,"Ġembarrassment":5315,"Ġcaut":5316,"Ġattacked":5317,"Ġorganizations":5318,"Ġuseful":5319,"Ġwide":5320,"Ġconfrontation":5321,"Ġdrink":5322,"Ġafford":5323,"Ġavenue":5324,"Ġcharact":5325,"Ġdreamed":5326,"Ġbattling":5327,"enc":5328,"Ġhopefully":5329,"Ġbodies":5330,"ler":5331,"Ġcontinued":5332,"Ġsend":5333,"Ġwhir":5334,"Ġpaintings":5335,"Ġencourages":5336,"Ġoverreact":5337,"Ġrepeat":5338,"Ġtouched":5339,"ĠPh":5340,"bro":5341,"Ġ7":5342,"ĠIdent":5343,"Ġconditions":5344,"ĠRejection":5345,"Ġflourish":5346,"Ġcras":5347,"eng":5348,"Ġrew":5349,"Ġelements":5350,"Ġmiscommunication":5351,"Ġrelation":5352,"Ġhearts":5353,"Ġabus":5354,"ĠShould":5355,"Ġtips":5356,"iver":5357,"Ġcrowd":5358,"Ġsalv":5359,"Ġoverly":5360,"Ġcriticizing":5361,"Ġregrets":5362,"Right":5363,"Ġobl":5364,"Ġsomewhere":5365,"heartedly":5366,"ÃŃ":5367,"Ġresponding":5368,"Ġstreet":5369,"inate":5370,"Ġprep":5371,"lw":5372,"Ġ6":5373,"Ġanim":5374,"Ġconfiding":5375,"Ġgrown":5376,"Ġunexpectedly":5377,"Ġprofoundly":5378,"Ġredefine":5379,"pat":5380,"Ġchances":5381,"Ġbetraying":5382,"Ġwaking":5383,"Ġarticulate":5384,"Ġnightmares":5385,"Ġbravery":5386,"Ġplatform":5387,"Ġesteem":5388,"Ġdecrease":5389,"broken":5390,"Ġyearning":5391,"Ġhimself":5392,"Ġzones":5393,"Ġdepending":5394,"Ġfinds":5395,"Ġ10":5396,"ushing":5397,"Ġdesperately":5398,"Ġalthough":5399,"Ġgrappling":5400,"bi":5401,"ĠCBT":5402,"Ġcreatively":5403,"Ġcherished":5404,"ado":5405,"Ġlas":5406,"ustry":5407,"Ġindustry":5408,"Ġwhirlw":5409,"Ġwhirlwind":5410,"Ġcombat":5411,"Ġspread":5412,"Ġbottled":5413,"Ġconquer":5414,"Ġsilence":5415,"Ġwishes":5416,"Ġaccess":5417,"Ġadventures":5418,"Ġfing":5419,"Ġep":5420,"Ġrelaxing":5421,"Ġwholeheartedly":5422,"Ġencountered":5423,"gin":5424,"Ġaud":5425,"Ġinstrumental":5426,"Now":5427,"Ġupbr":5428,"ĠLife":5429,"Ġrelapse":5430,"hib":5431,"Ġunl":5432,"Ġbaby":5433,"ando":5434,"Ġresolved":5435,"Ġnourishing":5436,"ĠConsist":5437,"ĠEn":5438,"Ġsettings":5439,"Ġlooked":5440,"erous":5441,"Ġmov":5442,"Ġmusical":5443,"void":5444,"ocking":5445,"Ġrelaxed":5446,"Ġacting":5447,"ÂłÂłÂłÂłÂłÂłÂłÂł":5448,"Re":5449,"Ġfuels":5450,"Ġflu":5451,"Ġunfulfilled":5452,"yal":5453,"Ġfade":5454,"ĠChallen":5455,"ode":5456,"Ġempowerment":5457,"Ġlar":5458,"Ġjudging":5459,"ric":5460,"Ġheartache":5461,"Ġnumerous":5462,"Ġwriters":5463,"Ġreint":5464,"Ġstir":5465,"Ġstraight":5466,"Ġpaying":5467,"ute":5468,"Ġadop":5469,"Ġheartbroken":5470,"hand":5471,"ĠMake":5472,"otography":5473,"Ġhighly":5474,"Whe":5475,"Ġterrible":5476,"Ġprofessionally":5477,"hs":5478,"Ġhaunt":5479,"ĠBet":5480,"Ġinterrupt":5481,"Ġdismissive":5482,"Ġupbringing":5483,"Ġtimeline":5484,"Ġexhale":5485,"ax":5486,"Ġshine":5487,"Ġintrodu":5488,"iter":5489,"Ġneedy":5490,"Ġinstant":5491,"Ġviewpoint":5492,"Ġcloseness":5493,"Ġwarms":5494,"Ġweren":5495,"Ġpursued":5496,"iat":5497,"Ġpride":5498,"Ġthick":5499,"Ġsuffering":5500,"ĠPracticing":5501,"Ã¡":5502,"Ġintegrating":5503,"Ġperpetu":5504,"Ġrum":5505,"Ġvariety":5506,"Ġdance":5507,"Ġsuggested":5508,"Ġintensifies":5509,"urs":5510,"Ġdoable":5511,"iance":5512,"Ġoblig":5513,"Ġinstrument":5514,"eting":5515,"ibility":5516,"ots":5517,"Ġlooks":5518,"čĊč":5519,"ocks":5520,"Ġforgetting":5521,"Ġloyal":5522,"nout":5523,"ceptions":5524,"Ġuna":5525,"Ġinterc":5526,"Ġoverreacting":5527,"Ġcounteract":5528,"uls":5529,"Ġcompared":5530,"Ġintentional":5531,"Ġshifts":5532,"ĠPhotography":5533,"Ġtone":5534,"Ġfinancially":5535,"Ġbackground":5536,"ously":5537,"math":5538,"Ġaftermath":5539,"ĠAvoid":5540,"Ġcancel":5541,"Ġhardest":5542,"ends":5543,"Ġopp":5544,"ĠChild":5545,"Ġepis":5546,"ptions":5547,"Ġseemingly":5548,"Ġsmile":5549,"ted":5550,"ĠBelieve":5551,"ulations":5552,"Ġaccusatory":5553,"ables":5554,"affirm":5555,"Ġunconditionally":5556,"Ġamends":5557,"Ġdro":5558,"Ġreturn":5559,"Ġchecking":5560,"Ġvide":5561,"Ġneeding":5562,"Ġaffection":5563,"Ġunworthy":5564,"Ġusual":5565,"Ġstrange":5566,"Ġdisappointments":5567,"Ġsurprising":5568,"Ġwarmth":5569,"ĠAm":5570,"Ġmater":5571,"Ġpursuits":5572,"Ġprotecting":5573,"otiv":5574,"Ġcrashing":5575,"Ġtriv":5576,"Ġbrushes":5577,"Ġname":5578,"Ġdistort":5579,"Ġoverthinking":5580,"urb":5581,"Ġcoworkers":5582,"Ġchasing":5583,"ĠDreams":5584,"Ġcontributes":5585,"ressed":5586,"Ġtrivial":5587,"Ġclubs":5588,"Ġconcept":5589,"Ġvir":5590,"Ġstrang":5591,"Ġcost":5592,"Ġcollaboration":5593,"ĠHold":5594,"Ġdog":5595,"aced":5596,"Ġvalidating":5597,"Ġsake":5598,"Ġguarded":5599,"Ġsun":5600,"Ġsolve":5601,"Ġwisdom":5602,"Ġupside":5603,"Ġcommitments":5604,"Ġstanding":5605,"Ġlifel":5606,"etime":5607,"Ġtut":5608,"Ġpage":5609,"Ġobserve":5610,"ĠConsistency":5611,"Ġprotective":5612,"Ġjoined":5613,"Ġrestless":5614,"Ġintu":5615,"Ġcity":5616,"Ġclin":5617,"olute":5618,"Ġburdens":5619,"Ġlifelong":5620,"nings":5621,"Ġconclus":5622,"Ġsuffer":5623,"Ġcautious":5624,"Ġconcerning":5625,"anted":5626,"Ġsalvage":5627,"Ġfad":5628,"Ġinvite":5629,"Ġendeavors":5630,"Ġabsolute":5631,"Ġdiagnosed":5632,"ĠWond":5633,"Ġcommitting":5634,"Ġconcentrating":5635,"ficient":5636,"Ġapproached":5637,"Ġawa":5638,"Ġfoods":5639,"Ġacademic":5640,"Ġcared":5641,"Ġteach":5642,"Ġcollect":5643,"encies":5644,"Ġlarger":5645,"Ġwins":5646,"TS":5647,"Ġbills":5648,"Ġod":5649,"Ġimprovements":5650,"Ġobsess":5651,"Ġrevisiting":5652,"Ġignite":5653,"cipl":5654,"Ġattracted":5655,"Ġcharacter":5656,"renity":5657,"ums":5658,"itious":5659,"\",":5660,"Ġserenity":5661,"agging":5662,"Ġenvisioned":5663,"CBT":5664,"Ġburnout":5665,"Ġlifetime":5666,"arget":5667,"ĠGoing":5668,"ĠWonderful":5669,"org":5670,"af":5671,"respect":5672,"comings":5673,"Ġshortcomings":5674,"Ġgotten":5675,"rist":5676,"Ġcu":5677,"growth":5678,"Ġremains":5679,"reci":5680,"Ġcontributions":5681,"ĠRecently":5682,"Perhaps":5683,"Ġten":5684,"Ġinn":5685,"Ġsmo":5686,"Ġnetworking":5687,"Ġnote":5688,"oday":5689,"Ġpowerless":5690,"solving":5691,"Ġsett":5692,"Ġvaluing":5693,"Ġholistic":5694,"Ġodds":5695,"Ġlayer":5696,"Ġstone":5697,"ader":5698,"Ġaccompanying":5699,"Ġinstincts":5700,"Ġfascinated":5701,"htt":5702,"Ġtears":5703,"imate":5704,"Ġchat":5705,"Ġnarr":5706,"ĠFacing":5707,"Ġexamine":5708,"capes":5709,"Ġdelegate":5710,"Ġnutrition":5711,"odes":5712,"Ġlots":5713,"Ġresistant":5714,"Ġemail":5715,"Ġplaced":5716,"ield":5717,"Ġbak":5718,"Ġdanger":5719,"ĠExactly":5720,"Ġdestructive":5721,"Ġultim":5722,"Ġprefer":5723,"Ġirritable":5724,"Ġimportantly":5725,"Ġprop":5726,"Ġpra":5727,"Ġmomentum":5728,"Ġcomparisons":5729,"Ġanaly":5730,"ob":5731,"Ġcomplain":5732,"ounce":5733,"Ġrevisit":5734,"Ġloud":5735,"Ġinternalized":5736,"Ġtutor":5737,"Ġmeas":5738,"Ġphot":5739,"Ġnose":5740,"Ġdevastated":5741,"Ġresurfacing":5742,"Ġcompanion":5743,"iating":5744,"Ġlink":5745,"Ġbir":5746,"Ġcamera":5747,"orse":5748,"Ġfright":5749,"ĠEngage":5750,"Ġfundament":5751,"Ġdoor":5752,"Ġeth":5753,"Ġcomponents":5754,"iene":5755,"Ġremorse":5756,"Ġunintent":5757,"ĠSm":5758,"Ġcrazy":5759,"Ġultimate":5760,"critical":5761,"ĠGuilt":5762,"Ġinformed":5763,"Ġorganization":5764,"Ġteenager":5765,"Ġstro":5766,"Ġterrifying":5767,"Ġoverlooked":5768,"Ġdepart":5769,"Ġlighten":5770,"Ġ30":5771,"exist":5772,"ĠHer":5773,"Ġfinal":5774,"Ġrepresent":5775,"Ġrejections":5776,"Ġreport":5777,"Ġscenario":5778,"Ġlimited":5779,"iven":5780,"Ġwater":5781,"long":5782,"Whenever":5783,"Ġconfirm":5784,"âĢĿ":5785,"Ġignored":5786,"Ġamplifies":5787,"Ġdiving":5788,"Ġprevents":5789,"Every":5790,"Ġpersonality":5791,"Ġwebsit":5792,"Ġdrift":5793,"omed":5794,"Ġcoworker":5795,"Ġintegral":5796,"appreci":5797,"Ġcareers":5798,"play":5799,"Ġreleasing":5800,"Ġbrushed":5801,"upting":5802,"Ġcancer":5803,"Ġalright":5804,"Ġpeers":5805,"Ġadmitting":5806,"Ġassure":5807,"while":5808,"Ġapply":5809,"ĠLove":5810,"ooking":5811,"Ġflex":5812,"Ġgift":5813,"inge":5814,"bye":5815,"inis":5816,"inary":5817,"oper":5818,"Ġske":5819,"Ġbelong":5820,"Ġexact":5821,"Ġreacting":5822,"Ġsho":5823,"ĠSpeaking":5824,"Ġcalls":5825,"Ġmourn":5826,"Ġstrangers":5827,"Ġride":5828,"Ġirrational":5829,"Ġcenter":5830,"Ġamb":5831,"ming":5832,"ership":5833,"weet":5834,"ĠApp":5835,"imental":5836,"Ġpersistence":5837,"Ġharsh":5838,"alf":5839,"Ġshadow":5840,"Ġembarrassing":5841,"ĠSmall":5842,"ĠHealth":5843,"Ġbullied":5844,"Ġintentionally":5845,"ĠBesides":5846,"Ġlunch":5847,"ĠSim":5848,"Ġsaving":5849,"Ġletters":5850,"Ġmeasuring":5851,"Ġpause":5852,"portant":5853,"Ġ'":5854,"egr":5855,"rupting":5856,"Ġsevere":5857,"Ġsmoking":5858,"Ġlandscapes":5859,"Ġtraining":5860,"Ġtendency":5861,"ongrat":5862,"Ġintuition":5863,"ĠAnger":5864,"ĠPart":5865,"ĠOvercoming":5866,"ior":5867,"Ġlying":5868,"Ġwalked":5869,"Ġreminis":5870,"Ġescalates":5871,"Ġadults":5872,"Ġstu":5873,"ĠWishing":5874,"ĠWho":5875,"Ġunim":5876,"Ġlimiting":5877,"Ġendeavor":5878,"ĠMost":5879,"Ġexhilar":5880,"Ġconsumes":5881,"Ġexplanation":5882,"Ġthinks":5883,"ping":5884,"ĠAsk":5885,"Ġparticipating":5886,"Ġexcites":5887,"ĠBal":5888,"Ġvary":5889,"els":5890,"ĠRed":5891,"Ġtrad":5892,"Ġprograms":5893,"icens":5894,"Ġdeath":5895,"Ġpresc":5896,"Ġrelieve":5897,"Ġhumor":5898,"Ġintrospect":5899,"TSD":5900,"reg":5901,"othe":5902,"aste":5903,"Ġoccurred":5904,"ĠSleep":5905,"Ġdreamt":5906,"Ġafterward":5907,"Good":5908,"Ġjoys":5909,"Ġarm":5910,"itters":5911,"Ġcultures":5912,"Ġmedit":5913,"Ġslight":5914,"Ġdom":5915,"Ġdancing":5916,"Ġtutorials":5917,"ĠInt":5918,"At":5919,"Ġsurvivor":5920,"Ġscars":5921,"Ġsmooth":5922,"Ġevaluate":5923,"Ġnagging":5924,"Ġreassure":5925,"Ġstranger":5926,"Ġdivor":5927,"Ġlens":5928,"Ġswit":5929,"Ġpromised":5930,"Ġmusicians":5931,"Ġskept":5932,"Ġdiscipl":5933,"Ġfocuses":5934,"Ġconfrontational":5935,"Ġlos":5936,"ĠCongrat":5937,"Ġemerg":5938,"Ġprivate":5939,"ĠCognitive":5940,"Ġadversity":5941,"Ġfueling":5942,"Ġmatch":5943,"onments":5944,"Ġclash":5945,"Ġenvironments":5946,"Ġtarget":5947,"Ġstrike":5948,"Ġdefeated":5949,"Ġanch":5950,"ĠTraum":5951,"Ġprolong":5952,"Ġaccur":5953,"und":5954,"Ġcooper":5955,"cket":5956,"ulnerability":5957,"agg":5958,"Ġlab":5959,"Ġautom":5960,"Ġintertwined":5961,"Ġthrow":5962,"Ġunpredict":5963,"Ġfingers":5964,"Ġgut":5965,"Ġassumptions":5966,"Alex":5967,"erves":5968,"Ġdread":5969,"Ġexpectation":5970,"Ġcircles":5971,"cil":5972,"ndom":5973,"Ġsafer":5974,"Ġbeneath":5975,"Ġteachers":5976,"vely":5977,"ĠWill":5978,"reprene":5979,"CC":5980,"Ġcoexist":5981,"Ġcourses":5982,"Ġexists":5983,"Ġpulling":5984,"balance":5985,"Ġtries":5986,"Ġsets":5987,"rayal":5988,"Ġunintentionally":5989,"ĠVulnerability":5990,"Ġfle":5991,"arks":5992,"Ġmanager":5993,"uming":5994,"Ġrut":5995,"Ġpull":5996,"Ġdin":5997,"ĠOr":5998,"ĠExercis":5999,"Ġrefres":6000,"Ġskilled":6001,"Ġexisting":6002,"Ġutilizing":6003,"ma":6004,"Ġrule":6005,"iest":6006,"taining":6007,"Ġdefinition":6008,"Ġrandom":6009,"Ġpredict":6010,"Ġdetr":6011,"Ġreinforces":6012,"ulation":6013,"ĠAsking":6014,"amil":6015,"Ġcarving":6016,"Ġaccusing":6017,"Ġforgotten":6018,"Ġlarge":6019,"Ġdetrimental":6020,"Ġboard":6021,"Ġcolor":6022,"Ġnutritious":6023,"Ġdisturb":6024,"Ġunimportant":6025,"Ġcomment":6026,"Ġboundary":6027,"Ġentreprene":6028,"Ġaligned":6029,"evalu":6030,"Ġsexually":6031,"umbling":6032,"Ġrelig":6033,"Ġcas":6034,"Ġphysician":6035,"ciÃ³n":6036,"Ġnone":6037,"Ġ:":6038,"Ġunat":6039,"Ġunt":6040,"Ġshaken":6041,"Ġcollege":6042,"ittersweet":6043,"ccess":6044,"yud":6045,"iced":6046,"Ġoverpow":6047,"ended":6048,"Ġenergized":6049,"Ġdelving":6050,"mates":6051,"Ġbittersweet":6052,"orders":6053,"iones":6054,"Ġdisorders":6055,"Ġrespectfully":6056,"Ġexchan":6057,"Ġenable":6058,"Ġhesitation":6059,"Ġepisodes":6060,"Ġaudience":6061,"ĠResear":6062,"oming":6063,"Ġelabor":6064,"Ġhappily":6065,"Ġpanicked":6066,"Ġje":6067,"Ġfleeting":6068,"dr":6069,"des":6070,"forgiveness":6071,"Ġpoor":6072,"Ġrekindle":6073,"Hello":6074,"achment":6075,"Ġchore":6076,"ball":6077,"icks":6078,"iny":6079,"aneously":6080,"Ġmirr":6081,"Ġbakery":6082,"Ġattainable":6083,"Ġcalling":6084,"Ġpsychological":6085,"Ġconfidential":6086,"giene":6087,"Ġayud":6088,"ĠHis":6089,"Ġintrusive":6090,"Ġtoler":6091,"rodu":6092,"Ġhosp":6093,"Ġbottling":6094,"Ġhygiene":6095,"ester":6096,"Ġdismisses":6097,"Ġincomp":6098,"Ġroles":6099,"Ġlessen":6100,"ĠBetrayal":6101,"Ġcust":6102,"Ġevening":6103,"osen":6104,"rite":6105,"Ġmotivating":6106,"Ġhig":6107,"Ġlog":6108,"fective":6109,"ĠPTSD":6110,"Ġhindering":6111,"Ġopens":6112,"rame":6113,"Ġdrag":6114,"Ġstret":6115,"Ġbelitt":6116,"Ġskin":6117,"Ġhide":6118,"Ġdeter":6119,"Ġsociety":6120,"Another":6121,"opard":6122,"Ġenhancing":6123,"Ġjeopard":6124,"Ġerr":6125,"Ġinterrupting":6126,"ĠRegard":6127,"ĠWhere":6128,"Ġintrigued":6129,"ts":6130,"Ġpsychiat":6131,"Ġtrick":6132,"ĠBalancing":6133,"Ġble":6134,"Ġunderm":6135,"Ġraces":6136,"Ġcrowded":6137,"ĠPhys":6138,"ĠâĢľ":6139,"ĠWorking":6140,"Ġsuffe":6141,"Ġfru":6142,"Ġsuicide":6143,"icensed":6144,"Ġdelegating":6145,"Ġpol":6146,"Ġsurroundings":6147,"Ġrepeated":6148,"Ġnarrative":6149,"Ġhour":6150,"Ġshifted":6151,"Ġanticipation":6152,"Ġtraveling":6153,"Ġsix":6154,"erting":6155,"redient":6156,"Ġingredient":6157,"Ġelaborate":6158,"Since":6159,"Ġgay":6160,"Ġpure":6161,"ultaneously":6162,"Ġdefense":6163,"Ġgest":6164,"see":6165,"Ġburdened":6166,"Ġwatch":6167,"ength":6168,"ulting":6169,"Ġorigin":6170,".)":6171,"Ġaddicted":6172,"Ġunattainable":6173,"ĠCl":6174,"Ġindulging":6175,"Ġhits":6176,"Ġpromotes":6177,"Ġwonders":6178,"Ġpreg":6179,"Ġsparked":6180,"crast":6181,"atively":6182,"amiliar":6183,"Ġexclud":6184,"Ġspiritual":6185,"ĠOh":6186,"thood":6187,"Ġserves":6188,"Ġminute":6189,"Ġessence":6190,"Ġfosters":6191,"Ġseparation":6192,"Ġgenerally":6193,"ĠfiancÃ©e":6194,"Lately":6195,"Ġhalf":6196,"Ġdeg":6197,"Ġcompromising":6198,"Ġsuffered":6199,"Ġliter":6200,"Ġsilly":6201,"oundaries":6202,"Ġrelied":6203,"Ġviewpoints":6204,"omething":6205,"asts":6206,"Ġapprehension":6207,"Ġpressured":6208,"Ġattended":6209,"urturing":6210,"Ġputs":6211,"xture":6212,"Ġmixture":6213,"ucing":6214,"Ġallocate":6215,"Ġdivorced":6216,"Ġloc":6217,"Ġreadiness":6218,"ontin":6219,"Ġfluctu":6220,"based":6221,"cles":6222,"Ġexposing":6223,"Ġqualified":6224,"Ġdur":6225,"Ġsport":6226,"Ġbehavioral":6227,"ĠChildhood":6228,"Ġcheer":6229,"Ġroadbl":6230,"ology":6231,"Ġeducation":6232,"Ġsees":6233,"Ġhoriz":6234,"ĠToday":6235,"ĠMan":6236,"Ġchain":6237,"ĠShifting":6238,"Ġnearby":6239,"rect":6240,"Ġcalmer":6241,"So":6242,"Ġpromoting":6243,"Ġindic":6244,"Ġsouls":6245,"Ġswitch":6246,"Ġunfamiliar":6247,"Ġexhilarating":6248,"seated":6249,"Ġsimultaneously":6250,"Ġclosely":6251,"Ġtiredness":6252,"Ġunderest":6253,"igrain":6254,"Ġfigured":6255,"igraines":6256,"Ġadmired":6257,"Ġunnot":6258,"ituals":6259,"Ġir":6260,"Ġsatisfied":6261,"Ġworthlessness":6262,"Ġyield":6263,"Ġunnoticed":6264,"po":6265,"Ġconfronted":6266,"Ġjobs":6267,"Ġfunctioning":6268,"Ġterrifies":6269,"Ġbreast":6270,"Ġobjective":6271,"Ġlinger":6272,"book":6273,"menting":6274,"Ġdelved":6275,"Ġstuff":6276,"Ġdocu":6277,"iring":6278,"otivated":6279,"ĠCongratulations":6280,"ĠDealing":6281,"Ġbriefly":6282,"ĠAppro":6283,"Ġbalancing":6284,"Ġconvince":6285,"Ġlovely":6286,"Ġculture":6287,"Ġeffortlessly":6288,"Ġjourneys":6289,"Ġprecious":6290,"Ġtemptation":6291,"Ġrecord":6292,"idal":6293,"Ġminor":6294,"Ġsuitable":6295,"Ġasp":6296,"Ġexhib":6297,"Ġdont":6298,"Ġspeaks":6299,"Ġinsurance":6300,"ĠForgiveness":6301,"Ġchosen":6302,"Ġbox":6303,"Ġrespecting":6304,"Ġmediation":6305,"ny":6306,"Ġdiver":6307,"consuming":6308,"Ġpreparing":6309,"Ġloyalty":6310,"Ġemployer":6311,"Ġorigins":6312,"Ġshi":6313,"Ġvivid":6314,"ĠFocusing":6315,"Ġsweat":6316,"Ġrid":6317,"ĠPat":6318,"Ġdirections":6319,"room":6320,"Ġhigher":6321,"Ġshel":6322,"Ġterrified":6323,"Ġvisualization":6324,"Ġpouring":6325,"mod":6326,"anced":6327,"Ġmaster":6328,"ursuing":6329,"Ġaccompan":6330,"Ġconfidently":6331,"ĠPrioritize":6332,"ĠThanks":6333,"Ġtroubling":6334,"Ġactual":6335,"ĠExercise":6336,"ĠMain":6337,"Ġirrit":6338,"Ġsi":6339,"Ġdemonstrates":6340,"pses":6341,"Ġdwell":6342,"Ġdinner":6343,"wise":6344,"imb":6345,"Ġstrongly":6346,"jer":6347,"Ġexamining":6348,"Ġspecialist":6349,"Ġreve":6350,"ared":6351,"Ġdisagree":6352,"Ġshutting":6353,"itially":6354,"ils":6355,"wor":6356,"ĠHolding":6357,"Ġdissatisf":6358,"Ġshaky":6359,"Ġfrag":6360,"Ġinput":6361,"Ġbottom":6362,"fortunate":6363,"Ġport":6364,"Ġunfortunate":6365,"Ġavoidance":6366,"Ġaspire":6367,"tally":6368,"Ġtotally":6369,"Ġsomewhat":6370,"Ġ:)":6371,"arning":6372,"Ġfundamental":6373,"Ġmotivator":6374,"briety":6375,"Ġsatisfying":6376,"Ġrap":6377,"ĠFinally":6378,"Ġvideo":6379,"Ġseries":6380,"Ġredirecting":6381,"00":6382,"ĠPursuing":6383,"Ġhopefulness":6384,"Ġreflects":6385,"Some":6386,"Ġrituals":6387,"Ġwin":6388,"Ġmigraines":6389,"ĠProf":6390,"Ġattentive":6391,"Ġbounce":6392,"unic":6393,"Ġinterpret":6394,"And":6395,"Ġprospect":6396,"ĠCouples":6397,"ĠBoth":6398,"Ġcontag":6399,"Ġinterfe":6400,"Ġspreading":6401,"ĠExper":6402,"Ġwind":6403,"Ġcontagious":6404,"Ġclassmates":6405,"Ġmas":6406,"Ġconstruct":6407,"ĠKeeping":6408,"Ġminimize":6409,"Ġpill":6410,"olar":6411,"Ġinsur":6412,"Ġexpose":6413,"Ġunconditional":6414,"Ġexpanding":6415,"Ġagg":6416,"ints":6417,"Ġactionable":6418,"Ġrise":6419,"Ġcontrolling":6420,"Ġlabel":6421,"through":6422,"Ġintrospection":6423,"Ġanchor":6424,"Ġwithdrawn":6425,"Ġ35":6426,"Ġobligations":6427,"After":6428,"Ġblind":6429,"ffeine":6430,"Ġlegal":6431,"Ġshield":6432,"Ġconvin":6433,"Ġopposit":6434,"Try":6435,"uest":6436,"Ġsobriety":6437,"Ġresort":6438,"iac":6439,"Ġunless":6440,"Ġears":6441,"Ġreintrodu":6442,"First":6443,"ĠAss":6444,"Ġpositives":6445,"ada":6446,"asy":6447,"Ġtalented":6448,"racking":6449,"Ġsuppressing":6450,"Ġslip":6451,"Ġvac":6452,"Ġrefreshing":6453,"Ġspiraling":6454,"ĠCounseling":6455,"Once":6456,"Ġinsomniac":6457,"Ġunpredictable":6458,"Ġcaffeine":6459,"Ġmeal":6460,"Ġjudgments":6461,"expl":6462,"Ġfem":6463,"Ġunfortunately":6464,"Ġknot":6465,"ships":6466,"Ġburning":6467,"Ġreferring":6468,"Ġwrote":6469,"Ġinterconnect":6470,"Ġopposite":6471,"Ġpent":6472,"Ġdepends":6473,"Ġdict":6474,"Ġfo":6475,"esc":6476,"ancial":6477,"Ġvalidity":6478,"hr":6479,"con":6480,"Ġreevalu":6481,"Ġasserting":6482,"Ġdemonstrate":6483,"Ġscre":6484,"Ġshowcase":6485,"Ġpatch":6486,"elines":6487,"Ġassume":6488,"Ġarr":6489,"Ġindulge":6490,"Ġga":6491,"Ġaccommod":6492,"Ġdemoral":6493,"Ġsan":6494,"Ġfort":6495,"Ġant":6496,"Ġuncovering":6497,"rolling":6498,"orph":6499,"Ġrelent":6500,"Ġsenses":6501,"Ġhurdle":6502,"oured":6503,"Ġingredients":6504,"Ġclimb":6505,"Ġenter":6506,"boyfriend":6507,"ason":6508,"Ġhitting":6509,"Ġincompet":6510,"ĠMaintaining":6511,"Ġlicensed":6512,"Ġfascinating":6513,"Ġsubjects":6514,"Ġsem":6515,"Ġdiscipline":6516,"Ġequip":6517,"cont":6518,"Ġfog":6519,"ĠGive":6520,"Ġabused":6521,"Ġrequest":6522,"Ġreassess":6523,"Ġplatforms":6524,"harm":6525,"Ġpromises":6526,"Ġperforming":6527,"aid":6528,"telling":6529,"Ġnerve":6530,"Ġassisting":6531,"Ġchains":6532,"Ġconstructively":6533,"Ġob":6534,"Ġnerves":6535,"Ġconcentration":6536,"Ġorganized":6537,"hers":6538,"ĠNeg":6539,"Ġpop":6540,"Ġouts":6541,"ĠGratitude":6542,"ĠTrying":6543,"judgment":6544,"Ġinterconnected":6545,"bo":6546,"Ġcomo":6547,"Ġexcuses":6548,"ĠVis":6549,"Ġsick":6550,"Ġconsideration":6551,"Ġot":6552,"Ġattractive":6553,"pathy":6554,"ĠChallenging":6555,"Ġmad":6556,"Ġrefer":6557,"Ġendorph":6558,"ĠEncou":6559,"Ġgirls":6560,"Ġmanifests":6561,"Ġverbal":6562,"Ġrace":6563,"Ġadvocating":6564,"Ġaccurate":6565,"Ġfast":6566,"etting":6567,"Ġprocrast":6568,"Ġrushing":6569,"Ġ15":6570,"Ġhyper":6571,"Self":6572,"ĠIsol":6573,"Ġurg":6574,"BH":6575,"Ġrelates":6576,"Ġsky":6577,"valu":6578,"Ġworthwhile":6579,"ertainly":6580,"Ġregards":6581,"su":6582,"stro":6583,"Ġrecover":6584,"ĠLP":6585,"ilitating":6586,"Ġdisrupted":6587,"Ġbirth":6588,"ĠPl":6589,"Ġharmful":6590,"Ġbrushstro":6591,"Ġendorphins":6592,"Ġpoured":6593,"Ġthanks":6594,"ĠRegular":6595,"Ġdragging":6596,"atically":6597,"otic":6598,"ĠDiscovering":6599,"Ġimagining":6600,"obin":6601,"ciliation":6602,"reaking":6603,"Ġcraft":6604,"Ġshaping":6605,"Ġut":6606,"Ġdescription":6607,"Ġresent":6608,"Ġdepartment":6609,"ĠContin":6610,"Ġregulate":6611,"ĠPatience":6612,"Are":6613,"Ġband":6614,"Ġimpuls":6615,"Ġsensation":6616,"Ġinviting":6617,"Ġhospital":6618,"Ġrequired":6619,"ĠFinancial":6620,"mount":6621,"Ġshines":6622,"Ġcomple":6623,"ĠUnfortunately":6624,"Ġdemoralizing":6625,"âĢĶ":6626,"Ġrad":6627,"Ġcomprehens":6628,"Ġbinge":6629,"Ġpalm":6630,"Ġstorytelling":6631,"Ġmirror":6632,"mountable":6633,"zed":6634,"Ġevolving":6635,"ffective":6636,"Ġperceptions":6637,"Ġhorizons":6638,"Ġwritten":6639,"ountain":6640,"Ġinsurmountable":6641,"ĠSecond":6642,"Ġpalms":6643,"Ġshoulder":6644,"Ġreconciliation":6645,"Ġtri":6646,"Ġshowed":6647,"Ġswim":6648,"Ġconclusions":6649,"parent":6650,"Ġownership":6651,"Ġcharged":6652,"Ġstressing":6653,"ĠBest":6654,"Ġsmart":6655,"Ġhoning":6656,"Ġdisappear":6657,"Ġdamp":6658,"Ġpictures":6659,"Ġfrightening":6660,"no":6661,"Ġmountain":6662,"Ġheat":6663,"ĠLand":6664,"Ġheartening":6665,"exploration":6666,"kward":6667,"Ġteenage":6668,"Ġdebilitating":6669,"me":6670,"Ġwear":6671,"apping":6672,"Ġawkward":6673,"Ġstudy":6674,"appreciated":6675,"ffee":6676,"Ġdegree":6677,"ators":6678,"Ġboy":6679,"Ġcoffee":6680,"Ġcherishing":6681,"OU":6682,"Ġsuits":6683,"Ġpresents":6684,"Ġdamaging":6685,"Ġskeptical":6686,"ĠIve":6687,"idad":6688,"Ġclean":6689,"Ġbehaviours":6690,"Ġsurf":6691,"Ġreplay":6692,"Ġperfectionism":6693,"Ġstagn":6694,"ĠRediscovering":6695,"ĠManaging":6696,"reate":6697,"Ġstages":6698,"icit":6699,"Ġadvant":6700,"Ġentering":6701,"Ġdecline":6702,"Ġsports":6703,"Ġapps":6704,"Ġsuppress":6705,"Ġpulled":6706,"Ġpuede":6707,"ĠGrieving":6708,"Ġrepairing":6709,"ĠGoodbye":6710,"Ġuntang":6711,"Best":6712,"Ġattacking":6713,"Ġmuster":6714,"Ġviews":6715,"Ġaffirmation":6716,"wracking":6717,"Ġsibling":6718,"Ġbreakthrough":6719,"Ġduration":6720,"onsider":6721,"ipolar":6722,"Ġdelight":6723,"oton":6724,"Ġproven":6725,"ĠPersonal":6726,"ĠSomeone":6727,"ĠProfess":6728,"Ġchase":6729,"Ġtrap":6730,"Ġendured":6731,"Ġcover":6732,"Ġbath":6733,"ull":6734,"rad":6735,"These":6736,"ĠProg":6737,"Ġlegacy":6738,"ĠWas":6739,"Ġcompetent":6740,"regard":6741,"Ġrelating":6742,"ifferen":6743,"ĠUncertain":6744,"Ġ8":6745,"Ġdeaf":6746,"Ġutilize":6747,"Ġrumors":6748,"Ġthriving":6749,"Ġdescribed":6750,"Ġunity":6751,"Ġtricky":6752,"Ġrelentless":6753,"sided":6754,"Ġappreciates":6755,"Ġblank":6756,"Ġrefuses":6757,"Ġappointments":6758,"Ġerror":6759,"ĠRemembering":6760,"....":6761,"Ġmodel":6762,"Ġresolutions":6763,"Ġentrepreneur":6764,"orn":6765,"Ġbi":6766,"Ġdisregard":6767,"Ġsurge":6768,"Ġpretending":6769,"Ġpointing":6770,"Ġcompleted":6771,"ras":6772,"Ġshares":6773,"Ġslots":6774,"Ġcomponent":6775,"thought":6776,"Ġanywhere":6777,"Ġarising":6778,"Ġunmotivated":6779,"ĠLooking":6780,"ĠDBH":6781,"wehr":6782,"Ġanticipating":6783,"ĠLandwehr":6784,"Ġtrial":6785,"neg":6786,"Ġhiding":6787,"Ġbeginnings":6788,"Ġindividuality":6789,"Ġunfolding":6790,"ĠResearching":6791,"ĠUncertainty":6792,"Ġrespects":6793,"Ġrestoring":6794,"Ġobserving":6795,"Ġbesides":6796,"Ġstumbled":6797,"illiant":6798,"ĠJoining":6799,"backs":6800,"Ġhurdles":6801,"Ġfortun":6802,"Ġspot":6803,"ĠčĊč":6804,"ĠEver":6805,"Ġmediate":6806,"http":6807,"Ġweather":6808,"ĠGod":6809,"Ġoverwhelms":6810,"Ġcompleting":6811,"Ġabrupt":6812,"Ġreliable":6813,"Ġpraise":6814,"Ġadvantage":6815,"orrow":6816,"Ġbes":6817,"Ġtendencies":6818,"ĠUse":6819,"Ġrefocus":6820,"ĠIdentifying":6821,"amb":6822,"Ġunfair":6823,"Ġroof":6824,"Ġpleas":6825,"management":6826,"ifications":6827,"Ġfights":6828,"Ġchanneling":6829,"Ġrejuvenation":6830,"works":6831,"Ġcompromises":6832,"Ġbeside":6833,"erate":6834,"Ġlightness":6835,"Ġphotographs":6836,"ĠComparis":6837,"Ġadvisor":6838,"Ġclarify":6839,"ĠChronic":6840,"assurance":6841,"Ġremaining":6842,"Ġorient":6843,"Ġbrilliant":6844,"Ġbroad":6845,"Ġparan":6846,"Ġrational":6847,"Ġstatus":6848,"Ġorganizing":6849,"Ġdisorient":6850,"Ġforced":6851,"Ġrate":6852,"Ġextreme":6853,"Ġinev":6854,"Ġstore":6855,"Ġweekends":6856,"Ġhorrible":6857,"Ġmel":6858,"Ġexcept":6859,"ification":6860,"Ġunfolds":6861,"Ġinstantly":6862,"Ġinnoc":6863,"isis":6864,"Ġkinds":6865,"Ġsending":6866,"Ġspaces":6867,"Ġtransport":6868,"Ġfortunate":6869,"Ġjudgement":6870,"Ġreput":6871,"Ġwebsite":6872,"Can":6873,"fering":6874,"cuss":6875,"Ġsocializing":6876,"Ġfitting":6877,"egrating":6878,"esterday":6879,"Ġtom":6880,"ĠSimple":6881,"ĠEffective":6882,"Ġcompliment":6883,"Ġmovie":6884,"Ġfallen":6885,"Ġresha":6886,"Ġguidelines":6887,"Ġsincere":6888,"like":6889,"Ġengagement":6890,"Ġlaughing":6891,"Ġunappreciated":6892,"ĠReminding":6893,"Ġframe":6894,"Ġinterfering":6895,"ullying":6896,"ĠLoss":6897,"Ġblue":6898,"Ġdiscovery":6899,"Ġexistence":6900,"ĠThough":6901,"Ġdissatisfaction":6902,"Ġfemale":6903,"Ġgames":6904,"Ġpuedes":6905,"Ġimages":6906,"Ġcomplexity":6907,"Ġblog":6908,"Ġhot":6909,"unct":6910,"Ġcontrolled":6911,"ĠProfessional":6912,"Ġpen":6913,"Ġformer":6914,"ructuring":6915,"ĠAd":6916,"ĠNCC":6917,"Ġlaw":6918,"Ġsanctu":6919,"that":6920,"Ġlied":6921,"ientos":6922,"imp":6923,"rapist":6924,"Okay":6925,"ardening":6926,"Ġjumping":6927,"ivers":6928,"Ġdabb":6929,"Ġunderestimate":6930,"arent":6931,"Ġviewing":6932,"ulf":6933,"Ġengulf":6934,"Ġreminiscing":6935,"Ġcomprehensive":6936,"Ġfaces":6937,"Ġveget":6938,"Ġindependently":6939,"ĠTrauma":6940,"Ġoverpowering":6941,"Ġchose":6942,"Ġhighs":6943,"abot":6944,"Ġforesee":6945,"Ġterrit":6946,"plain":6947,"ĠWithout":6948,"Ġsanctuary":6949,"arant":6950,"cile":6951,"hich":6952,"ĠNurturing":6953,"ems":6954,"Ġguarant":6955,"valued":6956,"Ġstig":6957,"Ġmotivations":6958,"Ġnovel":6959,"Ġorganize":6960,"Ġblo":6961,"Ġscale":6962,"Ġbreakdowns":6963,"Ġalert":6964,"ĠMent":6965,"Ġreconcile":6966,"Ġcontinuously":6967,"sually":6968,"Ġcomplement":6969,"Ġoutsider":6970,"ulthood":6971,"Ġlows":6972,"ĠWere":6973,"Ġunmet":6974,"Ġadulthood":6975,"Ġventure":6976,"ĠTrue":6977,"--------":6978,"che":6979,"Ġdabbled":6980,"Ġmanip":6981,"Ġdisturbances":6982,"Ġbless":6983,"Ġearn":6984,"Ġpregn":6985,"Ġscrat":6986,"Ġmonoton":6987,"Ġproactively":6988,"Ġreveal":6989,"Ġcenters":6990,"Ġdebt":6991,"Ġoccasional":6992,"Ġarms":6993,"Ġsuit":6994,"ĠVisual":6995,"Ġmeaningless":6996,"Ġupdates":6997,"Ġwandering":6998,"ulating":6999,"Ġdictate":7000,"Â¿":7001,"Ġsubjective":7002,"Ġgestures":7003,"Ġann":7004,"Ġreplen":7005,"ĠMed":7006,"alk":7007,"Ġrestructuring":7008,"Ġservice":7009,"Ġwarning":7010,"Ġpresentations":7011,"Ġbothers":7012,"Ġaccepts":7013,"Ġcollaborate":7014,"Ġtaste":7015,"Ġreaders":7016,"Ġdemonstrating":7017,"Ġcrut":7018,"ĠCoping":7019,"Ġdeepening":7020,"Ġestablished":7021,"radu":7022,"Ġfrequency":7023,"Ġheighten":7024,"Ġmentorship":7025,"Ġgrades":7026,"Ġunsu":7027,"Ġlistened":7028,"Ġserving":7029,"Ġmanifesting":7030,"ounds":7031,"Ġhole":7032,"Ġsolitude":7033,"Ġtouching":7034,"oved":7035,"Ġhost":7036,"Ġstudent":7037,"Ġtightness":7038,"Ġdescribing":7039,"bol":7040,"Ġattachment":7041,"Ġtransformations":7042,"ĠBegin":7043,"Ġpressing":7044,"Ġelement":7045,"Ġshuts":7046,"Ġanimals":7047,"Ġspl":7048,"Ġunwilling":7049,"Ġassuming":7050,"ushed":7051,"Ġboosts":7052,"playing":7053,"Ġdefend":7054,"Ġinherently":7055,"Ġthrowing":7056,"ĠBoundaries":7057,"Ġsymbol":7058,"Ġrewards":7059,"Ġretreat":7060,"Ġanimal":7061,"ĠTime":7062,"Ġwithdrawal":7063,"ĠApproaching":7064,"Ġcrutch":7065,"Ġinterfere":7066,"over":7067,"Ġinability":7068,"Ġrestlessness":7069,"Ġdeterior":7070,"Ġfreaking":7071,"ros":7072,"Ġappealing":7073,"doubts":7074,"Ġjeopardize":7075,"Ġtransforming":7076,"Ġraise":7077,"Ġreview":7078,"Ġsucceeding":7079,"Ġinvestment":7080,"Ġunpack":7081,"Ġfoot":7082,"astro":7083,"Ġstresses":7084,"Ġpretend":7085,"Ġspiraled":7086,"Ġfragile":7087,"Ġfueled":7088,"lusive":7089,"Ġevaluation":7090,"your":7091,"urity":7092,"Ġmemor":7093,"ĠEmily":7094,"Ġfollowed":7095,"itting":7096,"Ġtrails":7097,"Ġweaknesses":7098,"Ġdecreased":7099,"Ġrepresents":7100,"ume":7101,"ĠUsing":7102,"Ġtoug":7103,"Ġwww":7104,"Ġcouns":7105,"Ġcrisis":7106,"knit":7107,"Ġexcessively":7108,"Ġrejuvenate":7109,"ĠRegarding":7110,"Ġroadblocks":7111,"Ġsweaty":7112,"Ġdram":7113,"Ġraw":7114,"Ġaccord":7115,"Ġvegetables":7116,"Ġtre":7117,"Ġthus":7118,"inating":7119,"Ġimpressive":7120,"ĠPhysical":7121,"Ġagreed":7122,"arader":7123,"Ġterminate":7124,"Ġcamarader":7125,"Does":7126,"Ġcamaraderie":7127,"Ex":7128,"que":7129,"Ġdisrespect":7130,"Ġsmell":7131,"Ġflag":7132,"Ġfal":7133,"Ġlikes":7134,"Ġaligning":7135,"By":7136,"Ġcool":7137,"Ġlesson":7138,"Ġliked":7139,"Ġreintroduce":7140,"onym":7141,"Ġextended":7142,"ĠHonest":7143,"Ġbeforehand":7144,"Ġprompt":7145,"ĠSecondly":7146,"Ġconfidant":7147,"Ġautomatically":7148,"Ġpun":7149,"Ġintern":7150,"Ġselves":7151,"Ġsum":7152,"Ġowe":7153,"Ġrift":7154,"Ġhandled":7155,"Ġmaterials":7156,"fficient":7157,"Ġapparent":7158,"Ġtheme":7159,"Ġchaotic":7160,"Ġpaints":7161,"Ġfinish":7162,"ĠRome":7163,"Ġfixating":7164,"ĠSomething":7165,"ĠLean":7166,"Ġtroubles":7167,"Ġrewrite":7168,"Ġpsychiatrist":7169,"Ġacqu":7170,"Ġmaturity":7171,"Ġstrengthens":7172,"Ġdull":7173,"Ġunlock":7174,"Ġnames":7175,"Ġtraits":7176,"Ġresurfaces":7177,"Ġmovies":7178,"rut":7179,"Ġsurrounds":7180,"biased":7181,"Ġcooperative":7182,"Ġbasics":7183,"cared":7184,"ĠFant":7185,"Ġrefuse":7186,"Ġembraced":7187,"ĠEmpathy":7188,"Ġfatigued":7189,"Ġpaid":7190,"Ġotherwise":7191,"Ġcontrad":7192,"Ġtheirs":7193,"ishes":7194,"Ġstones":7195,"iece":7196,"Ġinsomnia":7197,"Ġvirt":7198,"ancy":7199,"ĠGardening":7200,"uct":7201,"Ġunbiased":7202,"Ġmagical":7203,"DR":7204,"Ġmotivational":7205,"isexual":7206,"Ġevenings":7207,"Then":7208,"ĠBody":7209,"Ġintroduce":7210,"Ġtriump":7211,"Ġsne":7212,"igor":7213,"Ġhikes":7214,"Ġdesperate":7215,"Ġdeny":7216,"Ġcrumbled":7217,"Ġincompetent":7218,"Ġabruptly":7219,"Ġbaking":7220,"ĠFantastic":7221,"dep":7222,"Ġflexibility":7223,"ener":7224,"Ġcompetition":7225,"upid":7226,"worthiness":7227,"ughed":7228,"trust":7229,"Ġok":7230,"ster":7231,"Ġaspiration":7232,"Ġfruits":7233,"ealousy":7234,"hn":7235,"ventually":7236,"Ġuniqueness":7237,"ĠAnything":7238,"isors":7239,"Ġlaughed":7240,"Ġtomorrow":7241,"Ġton":7242,"Ġforums":7243,"Ġasks":7244,"Ġmask":7245,"Ġterap":7246,"rome":7247,"Ġmaterial":7248,"Ġsticking":7249,"acin":7250,"Ġexpects":7251,"Ġuntangle":7252,"erved":7253,"Ġforth":7254,"Ġviolence":7255,"omy":7256,"ndrome":7257,"Ġproceed":7258,"ĠBullying":7259,"Ġvolunteer":7260,"elled":7261,"map":7262,"Ġneither":7263,"raming":7264,"Ġroadmap":7265,"Ġcup":7266,"alities":7267,"Ġtraditional":7268,"Ġscratch":7269,"Ġsusp":7270,"Ġenric":7271,"Ġliberation":7272,"Ġexcluded":7273,"GBT":7274,"ĠQ":7275,"elds":7276,"Ġwherever":7277,"Ġclut":7278,"Ġeducate":7279,"Ġprioritized":7280,"ĠList":7281,"Ġstupid":7282,"Ġbreakups":7283,"Ġawake":7284,"ressure":7285,"Ġrevolves":7286,"Ġcorrect":7287,"Ġelusive":7288,"Ġphotos":7289,"Ġstroke":7290,"Ġprevented":7291,"ĠAb":7292,"rying":7293,"Ġcareg":7294,"Ġdeadline":7295,"Ġunexplain":7296,"reaming":7297,"Ġrecommended":7298,"ĠYOU":7299,"Ġcrumbling":7300,"Ġperman":7301,"ĠInv":7302,"Ġsnap":7303,"atching":7304,"Ġstrict":7305,"Ġprocesses":7306,"Ġelimin":7307,"Ġcontradict":7308,"ĠChe":7309,"Ġvisualize":7310,"Ġcatastro":7311,"gender":7312,"Ġshall":7313,"zz":7314,"Ġundervalued":7315,"Ġelect":7316,"omb":7317,"Ġcarefully":7318,"Ġdamaged":7319,"Ġrecipes":7320,"aciÃ³n":7321,"Ġmedic":7322,"Ġhumil":7323,"Ġsettle":7324,"Ġcustom":7325,"Ġstagnant":7326,"47":7327,"Ġfitness":7328,"analy":7329,"Ġmustered":7330,"utting":7331,"Ġwitnessed":7332,"Ġaffair":7333,"Ġimmersed":7334,"Ġstrides":7335,"hearted":7336,"outs":7337,"ript":7338,"ĠGradu":7339,"Su":7340,"Ġexplicit":7341,"Ġbelittle":7342,"Ġcold":7343,"wered":7344,"Ġblock":7345,"Ġresponded":7346,"Ġprocessed":7347,"Ġtreats":7348,"Ġdisheartened":7349,"Start":7350,"Ġpersists":7351,"Ġethical":7352,"Ġsin":7353,"Ġexceed":7354,"Ġscrolling":7355,"Ġattracting":7356,"Ġclinician":7357,"Ġfaded":7358,"ural":7359,"Ġapplying":7360,"Ġwearing":7361,"Ġhaunting":7362,"Ġafterwards":7363,"ung":7364,"Ġcompat":7365,"Ġbipolar":7366,"ĠJealousy":7367,"Ġreduction":7368,"Ġrooting":7369,"Ġdrifted":7370,"Ġcard":7371,"ĠNegative":7372,"Ġmark":7373,"Ġadopting":7374,"ĠLGBT":7375,"Ġextraord":7376,"Ġvaries":7377,"protect":7378,"Ġacademically":7379,"Ġ&":7380,"Ġdeplet":7381,"Ġjuggle":7382,"Ġunsupport":7383,"ĠRather":7384,"Ġdriven":7385,"onymous":7386,"inations":7387,"Ġbored":7388,"Ġrejuvenating":7389,"Ġunexplained":7390,"Ġreinforcing":7391,"Ġstood":7392,"sexual":7393,"Ġmotivates":7394,"Ġdetached":7395,"Ġseconds":7396,"Ġflags":7397,"ĠDis":7398,"Ġunraveling":7399,"Ġemails":7400,"ida":7401,"Ġdeliver":7402,"Ġcried":7403,"Ġdigest":7404,"Ġsplit":7405,"ites":7406,"ays":7407,"Ġworkday":7408,"oster":7409,"Ġoccupied":7410,"Ġbedroom":7411,"Ġquestioned":7412,"Ġmourning":7413,"Ġattentively":7414,"enty":7415,"anting":7416,"Ġacceptable":7417,"Ġoutdoor":7418,"step":7419,"Ġcounting":7420,"Ġdistancing":7421,"Ġtremendously":7422,"ĠEmotions":7423,"Ġirritability":7424,"Stress":7425,"Ġdelighted":7426,"Taking":7427,"Ġcop":7428,"Ġconsejer":7429,"Ġagreement":7430,"Ġcal":7431,"Ġlucky":7432,"hors":7433,"Ġproviders":7434,"Ġcriticisms":7435,"Ġpeacefully":7436,"Ġpunch":7437,"Ġshy":7438,"Ġintriguing":7439,"Ġsomed":7440,"Ġpages":7441,"Those":7442,"Ġintervention":7443,"Ġprescri":7444,"Ġseeping":7445,"Ġassignments":7446,"iedad":7447,"umps":7448,"Ġlower":7449,"Ġcasual":7450,"Ġcutting":7451,"ubl":7452,"Ġspill":7453,"Ġ9":7454,"Ġtemper":7455,"Ġphoto":7456,"Ġbar":7457,"Ġchun":7458,"ĠMore":7459,"Ġflowers":7460,"ĠAvoiding":7461,"Ġdocument":7462,"Ġexposed":7463,"Ġeverytime":7464,"Ġdoubted":7465,"Ġassessment":7466,"ĠReaching":7467,"Ġsyndrome":7468,"Ġsomeday":7469,"inent":7470,"Ġplag":7471,"Ġtrain":7472,"Ġstayed":7473,"Ġschoolwork":7474,"Ġoccup":7475,"Ġignited":7476,"negot":7477,"DH":7478,"Moving":7479,"Ġpal":7480,"Ġpeacefulness":7481,"Ġlinked":7482,"ighed":7483,"Ġacknowledg":7484,"deally":7485,"Ġattempting":7486,"Ġstigma":7487,"Ġdeli":7488,"Ġruin":7489,"Ġsparks":7490,"ositive":7491,"Ġshelter":7492,"From":7493,"ilitary":7494,"Ġsettled":7495,"parable":7496,"Ġder":7497,"Ġinseparable":7498,"Ġstim":7499,"seat":7500,"iendo":7501,"Ġbackseat":7502,"appro":7503,"Ġdrains":7504,"Ġpublishing":7505,"Ġinevitable":7506,"Ġrevel":7507,"oses":7508,"Ġweekly":7509,"Ġinstruct":7510,"Anxiety":7511,"Ġfirm":7512,"Ġattraction":7513,"Ġreplenish":7514,"Ġelsewhere":7515,"Ġalleviating":7516,"Ġfalls":7517,"While":7518,"Ġstudio":7519,"Ġhangs":7520,"Ġfields":7521,"Ġunwanted":7522,"Ġvitality":7523,"Ġunav":7524,"Ġvacation":7525,"bul":7526,"Ġuneasy":7527,"Ġchores":7528,"Have":7529,"da":7530,"urable":7531,"ĠCle":7532,"ÃŃa":7533,"Ġreevaluate":7534,"ĠSpending":7535,"imposed":7536,"Ġgro":7537,"Ġauton":7538,"Ġupsetting":7539,"Ġstrokes":7540,"Ġabst":7541,"ĠHel":7542,"Ġpod":7543,"Ġworlds":7544,"Ġviolent":7545,"ĠMax":7546,"Ġmovement":7547,"Ġflick":7548,"Ġstudies":7549,"Ġencountering":7550,"With":7551,"pressure":7552,"inducing":7553,"ĠTreat":7554,"Ġcontain":7555,"blance":7556,"Ġenthusiastic":7557,"Ġsemblance":7558,"good":7559,"Ġwar":7560,"ĠTV":7561,"getic":7562,"ormal":7563,"Ġansiedad":7564,"Ġexperimentation":7565,"Ġbudgeting":7566,"Ġreciprocate":7567,"Ġoveranaly":7568,"Ġconvinced":7569,"Ġbeating":7570,"Ġhacer":7571,"Rem":7572,"Ġspecialists":7573,"Ġdeciding":7574,"ĠLGBTQ":7575,"Ġbisexual":7576,"stal":7577,"ĠFriends":7578,"ĠHear":7579,"Ġimbalance":7580,"setting":7581,"Ġdefeat":7582,"Ġrekindling":7583,"Ġmic":7584,"ĠHonestly":7585,"Ġdrop":7586,"Ġdepleted":7587,"Ġchunks":7588,"Ġweighed":7589,"worthy":7590,"Ġfeet":7591,"Ġblocks":7592,"Ġawaits":7593,"Ġstudents":7594,"Ġburst":7595,"Ġaccomplishing":7596,"Robin":7597,"ĠTe":7598,"Ġclouded":7599,"rim":7600,"Ġinh":7601,"Ġattached":7602,"Ġphra":7603,"Ġappears":7604,"But":7605,"ido":7606,"Ġasset":7607,"ĠMe":7608,"All":7609,"Why":7610,"Ġpero":7611,"therapy":7612,"rict":7613,"uer":7614,"Ġnormally":7615,"ĠJohn":7616,"front":7617,"Ġdetach":7618,"ara":7619,"Ġattribut":7620,"Ġperpetuates":7621,"Ġclas":7622,"Ġreassured":7623,"66":7624,"Ġreplaced":7625,"Ġsmoothly":7626,"list":7627,"Ġconfided":7628,"Ġeffectiveness":7629,"Ġmonit":7630,"Ġextraordinary":7631,"MDR":7632,"Ġtrib":7633,"istance":7634,"ĠGiving":7635,"train":7636,"Ġpreserve":7637,"Ġfoundations":7638,"arriage":7639,"rection":7640,"Ġscrut":7641,"Ġfacts":7642,"Ġmale":7643,"Ġsurely":7644,"ĠExplore":7645,"Ġvirgin":7646,"ĠLPC":7647,"Ġresentful":7648,"Ġlooming":7649,"Ġsteady":7650,"ĠIntegrating":7651,"Having":7652,"bur":7653,"ĠNever":7654,"Ġflash":7655,"ĠThought":7656,"ĠAccepting":7657,"Ġterritory":7658,"Ġunavail":7659,"Ġguys":7660,"abil":7661,"Ġshoes":7662,"Ġskyro":7663,"Ġwinter":7664,"opening":7665,"Ġpreserving":7666,"Ġmode":7667,"Ã¡s":7668,"Ġtable":7669,"ury":7670,"Ġinterpersonal":7671,"Ġlocation":7672,"ĠCol":7673,"Ġphotographers":7674,"Ġgranted":7675,"uro":7676,"Ġgym":7677,"Ġaffordable":7678,"Ġdrives":7679,"ĠFriendships":7680,"Ġarticles":7681,"De":7682,"zes":7683,"Ġmilitary":7684,"Ġdise":7685,"Ġdefining":7686,"Ġmutually":7687,"ĠHearing":7688,"Ġmeasured":7689,"Ġinj":7690,"Ġformed":7691,"Ġrediscovery":7692,"ĊĊĊĊ":7693,"ĠContinue":7694,"col":7695,"Ġturbul":7696,"Ġextens":7697,"aciones":7698,"ĠEventually":7699,"wife":7700,"Ġmature":7701,"Ġauthors":7702,"Ġsuicidal":7703,"Ġprocrastination":7704,"Ġabstract":7705,"Ġunle":7706,"ĠRepe":7707,"Ġenvisioning":7708,"Ġoverthink":7709,"ÂłÂłÂłÂłÂłÂłÂłÂłÂłÂłÂłÂłÂłÂłÂłÂł":7710,"ĠMental":7711,"Ġallocating":7712,"Ġbeloved":7713,"Ġremembering":7714,"Ġdenial":7715,"Ġcompliments":7716,"Ġteaching":7717,"compass":7718,"ĠIsolation":7719,"ja":7720,"Ġcases":7721,"Ġenthusiasts":7722,"ĠIts":7723,"Ġreliance":7724,"ogle":7725,"Ġbadly":7726,"Ġtribute":7727,"jar":7728,"Ġincorporates":7729,"vert":7730,"cessing":7731,"Ġtransformed":7732,"ĠAtt":7733,"Ġschedules":7734,"erested":7735,"emos":7736,"Ġrepet":7737,"Ġprimarily":7738,"seen":7739,"iencing":7740,"Ġdivide":7741,"Ġerection":7742,"Ġshout":7743,"Ġcling":7744,"upunct":7745,"Ġglimpse":7746,"Ġparalyzed":7747,"ĠClear":7748,"Ġfool":7749,"Ġages":7750,"Ġtracking":7751,"Ġanalyze":7752,"ĠProgress":7753,"Un":7754,"Ġinvestig":7755,"ĠEmotionally":7756,"Ġreflected":7757,"Ġadjustment":7758,"Ġdisorienting":7759,"Ġguarantee":7760,"Ġpand":7761,"Ġpills":7762,"add":7763,"changer":7764,"Ġcomplaining":7765,"bble":7766,"ĠBreat":7767,"Ġexacerbates":7768,"dy":7769,"okes":7770,"Ġburdensome":7771,"Ġstarters":7772,"Ġspecialized":7773,"Ġhelplessness":7774,"Ġtalks":7775,"Ġfirsthand":7776,"Ġprescrib":7777,"upuncture":7778,"Ġraised":7779,"Ġtypical":7780,"Ġpsychologist":7781,"Ġparanoid":7782,"Ġsurfacing":7783,"bally":7784,"dest":7785,"ĠChrist":7786,"Ġcompetitive":7787,"Ġconduc":7788,"Ġpocket":7789,"Ġunworthiness":7790,"Ġtolerate":7791,"Ġobvious":7792,"Ġconducive":7793,"Ġsket":7794,"Ġnetworks":7795,"Ġbubble":7796,"Ask":7797,"Ġexplicitly":7798,"Ġdesigned":7799,"Ġfamiliarity":7800,"Ġvirtual":7801,"Ġunrel":7802,"Ġwander":7803,"opath":7804,"ĠInitially":7805,"ĠChallenge":7806,"baj":7807,"forward":7808,"Ġreciprocated":7809,"Ġintend":7810,"Ġhighlighting":7811,"hest":7812,"Ġindicate":7813,"Ġshouting":7814,"Ġdreaming":7815,"Ġsolo":7816,"Ġperpetuate":7817,"Ġgre":7818,"Ġimagination":7819,"Ġcollaboratively":7820,"Ġcuando":7821,"Ġresorting":7822,"Certainly":7823,"Ġresulted":7824,"ĠKnow":7825,"Ġsentim":7826,"ĠEncourage":7827,"Ġpleasures":7828,"Ġadopt":7829,"tery":7830,"Ġfantas":7831,"ĠAcknowledge":7832,"Ġdim":7833,"Ġendure":7834,"Ġanalyzing":7835,"using":7836,"Ġfacade":7837,"cho":7838,"Ġreliving":7839,"Ġamplifying":7840,"Ġgrocer":7841,"Ġbagg":7842,"Ġcomunic":7843,"Ġdangerous":7844,"ison":7845,"Ġbeach":7846,"ĠMis":7847,"Ġmodalities":7848,"Ġblindsided":7849,"Ġreluct":7850,"Ġextends":7851,"Ġflexible":7852,"ĠInd":7853,"ĠLook":7854,"Ġinvigor":7855,"blown":7856,"Ġemergency":7857,"estic":7858,"Ġadmitted":7859,"Ġhighlights":7860,"appropriate":7861,"Remember":7862,"Ġshortness":7863,"Ġintensifying":7864,"ĠčĊ":7865,"Ġkiss":7866,"Ġcombined":7867,"pa":7868,"erating":7869,"Ġnos":7870,"ourse":7871,"Ġserene":7872,"ading":7873,"Ġprogressing":7874,"Ġbrainstorming":7875,"Ġawait":7876,"87":7877,"Ġautonomy":7878,"uous":7879,"Ġpit":7880,"oph":7881,"Ġcomposed":7882,"Ġlandscape":7883,"negotiable":7884,"understand":7885,"umm":7886,"Ġtrustworthy":7887,"ĠSexual":7888,"Ġhaunts":7889,"Ġfalse":7890,"Ġtus":7891,"Ġmant":7892,"ĠLow":7893,"ĠBecause":7894,"ĠIdentify":7895,"Ġyelling":7896,"Ġsus":7897,"Ġexchange":7898,"Ġseed":7899,"Ġverbally":7900,"normal":7901,"Ġbeat":7902,"Ġimpression":7903,"Ġprominent":7904,"ological":7905,"Ġreligious":7906,"Ġorientation":7907,"rum":7908,"Ġthor":7909,"Ġtrabaj":7910,"affirmations":7911,"asically":7912,"mindedness":7913,"Ġawful":7914,"Ġsqu":7915,"emic":7916,"Ġcla":7917,"Ġbroaden":7918,"Ġener":7919,"Ġseparated":7920,"Ġmeasures":7921,"Ġconsulting":7922,"umes":7923,"Ġimagery":7924,"Ġdismissal":7925,"Ġpiqu":7926,"Ġchallenged":7927,"Ġapre":7928,"Ġincluded":7929,"Ġthorough":7930,"Ġexacerbating":7931,"Ġhorm":7932,"Ġcriticizes":7933,"Ġunavailable":7934,"idation":7935,"compassionate":7936,"Ġenergetic":7937,"Ġcul":7938,"Ġtune":7939,"Most":7940,"Ġwaters":7941,"Ġmagnitude":7942,"ipping":7943,"icity":7944,"ĠĠĠĠ":7945,"Ġboosted":7946,"prov":7947,"Ġsweet":7948,"fit":7949,"Ġmagically":7950,"Ġpropose":7951,"Ġimpart":7952,"Ġplenty":7953,"Ġcrush":7954,"Ġmarket":7955,"Ġprepar":7956,"ĠPlan":7957,"Ġtiny":7958,"Ġsupervisors":7959,"Ġtie":7960,"Ġran":7961,"Ġrewire":7962,"Ġbaggage":7963,"Hope":7964,"alidating":7965,"igil":7966,"ĠNothing":7967,"Ġskyrocket":7968,"Ġcelebration":7969,"ĠBehavioral":7970,"ĠAcceptance":7971,"ĠMeditation":7972,"Ġwav":7973,"elength":7974,"Ġconstra":7975,"Ġsuggests":7976,"Ġignoring":7977,"Ġsatisfy":7978,"Ġassumed":7979,"Ġwavelength":7980,"AA":7981,"even":7982,"Ġfreeing":7983,"which":7984,"Ġflashbacks":7985,"Ġporn":7986,"Ġmasterp":7987,"Ġmelodies":7988,"Consider":7989,"bor":7990,"ocated":7991,"plementing":7992,"Ġdiffer":7993,"isted":7994,"Ġacupuncture":7995,"friendly":7996,"Ġuplifts":7997,"Ġreleases":7998,"ĠMom":7999}