{
  "version": "1.0",
  "truncation": null,
  "padding": null,
  "added_tokens": [
    {
      "id": 0,
      "content": "<unk>",
      "single_word": false,
      "lstrip": false,
      "rstrip": false,
      "normalized": false,
      "special": true
    },
    {
      "id": 1,
      "content": "<pad>",
      "single_word": false,
      "lstrip": false,
      "rstrip": false,
      "normalized": false,
      "special": true
    },
    {
      "id": 2,
      "content": "<bos>",
      "single_word": false,
      "lstrip": false,
      "rstrip": false,
      "normalized": false,
      "special": true
    },
    {
      "id": 3,
      "content": "<eos>",
      "single_word": false,
      "lstrip": false,
      "rstrip": false,
      "normalized": false,
      "special": true
    }
  ],
  "normalizer": null,
  "pre_tokenizer": {
    "type": "Whitespace"
  },
  "post_processor": null,
  "decoder": null,
  "model": {
    "type": "BPE",
    "dropout": null,
    "unk_token": null,
    "continuing_subword_prefix": null,
    "end_of_word_suffix": null,
    "fuse_unk": false,
    "byte_fallback": false,
    "ignore_merges": false,
    "vocab": {
      "<unk>": 0,
      "<pad>": 1,
      "<bos>": 2,
      "<eos>": 3,
      "!": 4,
      "\"": 5,
      "$": 6,
      "%": 7,
      "&": 8,
      "'": 9,
      "(": 10,
      ")": 11,
      "*": 12,
      "+": 13,
      ",": 14,
      "-": 15,
      ".": 16,
      "/": 17,
      "0": 18,
      "1": 19,
      "2": 20,
      "3": 21,
      "4": 22,
      "5": 23,
      "6": 24,
      "7": 25,
      "8": 26,
      "9": 27,
      ":": 28,
      ";": 29,
      "?": 30,
      "A": 31,
      "B": 32,
      "C": 33,
      "D": 34,
      "E": 35,
      "F": 36,
      "G": 37,
      "H": 38,
      "I": 39,
      "J": 40,
      "K": 41,
      "L": 42,
      "M": 43,
      "N": 44,
      "O": 45,
      "P": 46,
      "Q": 47,
      "R": 48,
      "S": 49,
      "T": 50,
      "U": 51,
      "V": 52,
      "W": 53,
      "Y": 54,
      "Z": 55,
      "[": 56,
      "]": 57,
      "_": 58,
      "a": 59,
      "b": 60,
      "c": 61,
      "d": 62,
      "e": 63,
      "f": 64,
      "g": 65,
      "h": 66,
      "i": 67,
      "j": 68,
      "k": 69,
      "l": 70,
      "m": 71,
      "n": 72,
      "o": 73,
      "p": 74,
      "q": 75,
      "r": 76,
      "s": 77,
      "t": 78,
      "u": 79,
      "v": 80,
      "w": 81,
      "x": 82,
      "y": 83,
      "z": 84,
      "à": 85,
      "ç": 86,
      "é": 87,
      "–": 88,
      "—": 89,
      "’": 90,
      "“": 91,
      "”": 92,
      "…": 93,
      "─": 94,
      "in": 95,
      "th": 96,
      "ou": 97,
      "an": 98,
      "re": 99,
      "ing": 100,
      "on": 101,
      "at": 102,
      "er": 103,
      "en": 104,
      "to": 105,
      "you": 106,
      "el": 107,
      "and": 108,
      "es": 109,
      "or": 110,
      "al": 111,
      "ti": 112,
      "st": 113,
      "me": 114,
      "ve": 115,
      "the": 116,
      "is": 117,
      "it": 118,
      "be": 119,
      "ar": 120,
      "fe": 121,
      "your": 122,
      "ed": 123,
      "of": 124,
      "ac": 125,
      "li": 126,
      "ow": 127,
      "my": 128,
      "ha": 129,
      "that": 130,
      "le": 131,
      "se": 132,
      "It": 133,
      "he": 134,
      "ion": 135,
      "ly": 136,
      "ke": 137,
      "wi": 138,
      "co": 139,
      "con": 140,
      "for": 141,
      "can": 142,
      "feel": 143,
      "ab": 144,
      "su": 145,
      "ne": 146,
      "gh": 147,
      "so": 148,
      "ver": 149,
      "pp": 150,
      "out": 151,
      "sel": 152,
      "ay": 153,
      "ri": 154,
      "de": 155,
      "ro": 156,
      "mo": 157,
      "wh": 158,
      "with": 159,
      "self": 160,
      "ex": 161,
      "nd": 162,
      "tion": 163,
      "ation": 164,
      "ul": 165,
      "si": 166,
      "ent": 167,
      "pe": 168,
      "our": 169,
      "ess": 170,
      "ut": 171,
      "mp": 172,
      "ch": 173,
      "ce": 174,
      "as": 175,
      "lo": 176,
      "this": 177,
      "ind": 178,
      "like": 179,
      "ort": 180,
      "ther": 181,
      "res": 182,
      "ld": 183,
      "ate": 184,
      "are": 185,
      "di": 186,
      "ak": 187,
      "wor": 188,
      "ght": 189,
      "ll": 190,
      "exp": 191,
      "ge": 192,
      "ant": 193,
      "fi": 194,
      "ct": 195,
      "been": 196,
      "all": 197,
      "ad": 198,
      "ful": 199,
      "about": 200,
      "have": 201,
      "sh": 202,
      "mb": 203,
      "vi": 204,
      "Th": 205,
      "supp": 206,
      "ep": 207,
      "ur": 208,
      "way": 209,
      "ment": 210,
      "us": 211,
      "but": 212,
      "ci": 213,
      "art": 214,
      "tr": 215,
      "we": 216,
      "ain": 217,
      "ell": 218,
      "some": 219,
      "feeling": 220,
      "ound": 221,
      "end": 222,
      "support": 223,
      "pro": 224,
      "any": 225,
      "hel": 226,
      "mi": 227,
      "ould": 228,
      "help": 229,
      "und": 230,
      "ard": 231,
      "ress": 232,
      "mber": 233,
      "under": 234,
      "member": 235,
      "ally": 236,
      "thing": 237,
      "un": 238,
      "ely": 239,
      "com": 240,
      "ust": 241,
      "stand": 242,
      "find": 243,
      "imp": 244,
      "no": 245,
      "now": 246,
      "ui": 247,
      "understand": 248,
      "see": 249,
      "ho": 250,
      "ach": 251,
      "tions": 252,
      "heal": 253,
      "one": 254,
      "ough": 255,
      "ake": 256,
      "shi": 257,
      "more": 258,
      "work": 259,
      "time": 260,
      "ever": 261,
      "do": 262,
      "ie": 263,
      "here": 264,
      "op": 265,
      "Re": 266,
      "go": 267,
      "rel": 268,
      "able": 269,
      "up": 270,
      "ship": 271,
      "str": 272,
      "gr": 273,
      "ese": 274,
      "ance": 275,
      "there": 276,
      "ace": 277,
      "ers": 278,
      "over": 279,
      "po": 280,
      "these": 281,
      "Remember": 282,
      "ting": 283,
      "ity": 284,
      "tive": 285,
      "when": 286,
      "dis": 287,
      "That": 288,
      "est": 289,
      "myself": 290,
      "ter": 291,
      "ging": 292,
      "emo": 293,
      "cre": 294,
      "how": 295,
      "tic": 296,
      "other": 297,
      "step": 298,
      "jour": 299,
      "riend": 300,
      "tak": 301,
      "friend": 302,
      "fic": 303,
      "app": 304,
      "ven": 305,
      "How": 306,
      "ap": 307,
      "ward": 308,
      "what": 309,
      "own": 310,
      "not": 311,
      "yourself": 312,
      "rom": 313,
      "rough": 314,
      "ationship": 315,
      "thin": 316,
      "ties": 317,
      "relationship": 318,
      "allen": 319,
      "through": 320,
      "challen": 321,
      "ren": 322,
      "think": 323,
      "know": 324,
      "comm": 325,
      "from": 326,
      "care": 327,
      "sound": 328,
      "come": 329,
      "ney": 330,
      "journey": 331,
      "has": 332,
      "life": 333,
      "gi": 334,
      "mind": 335,
      "need": 336,
      "cus": 337,
      "ave": 338,
      "ense": 339,
      "will": 340,
      "red": 341,
      "eri": 342,
      "want": 343,
      "comp": 344,
      "ving": 345,
      "ffe": 346,
      "gui": 347,
      "br": 348,
      "cess": 349,
      "sounds": 350,
      "jo": 351,
      "qu": 352,
      "ought": 353,
      "being": 354,
      "am": 355,
      "ic": 356,
      "peci": 357,
      "age": 358,
      "fo": 359,
      "enc": 360,
      "tri": 361,
      "by": 362,
      "ction": 363,
      "king": 364,
      "ways": 365,
      "import": 366,
      "fa": 367,
      "experi": 368,
      "ence": 369,
      "conf": 370,
      "sense": 371,
      "emotions": 372,
      "ating": 373,
      "Have": 374,
      "gg": 375,
      "thought": 376,
      "ir": 377,
      "bre": 378,
      "start": 379,
      "Wh": 380,
      "pr": 381,
      "ten": 382,
      "pers": 383,
      "sol": 384,
      "ong": 385,
      "every": 386,
      "explo": 387,
      "important": 388,
      "could": 389,
      "ness": 390,
      "well": 391,
      "te": 392,
      "would": 393,
      "sp": 394,
      "ank": 395,
      "il": 396,
      "ca": 397,
      "health": 398,
      "toward": 399,
      "explore": 400,
      "ni": 401,
      "ure": 402,
      "just": 403,
      "love": 404,
      "towards": 405,
      "open": 406,
      "ati": 407,
      "ty": 408,
      "ations": 409,
      "make": 410,
      "sion": 411,
      "tiv": 412,
      "pl": 413,
      "new": 414,
      "feelings": 415,
      "ose": 416,
      "them": 417,
      "really": 418,
      "ag": 419,
      "conne": 420,
      "lict": 421,
      "side": 422,
      "guid": 423,
      "break": 424,
      "ef": 425,
      "ond": 426,
      "let": 427,
      "act": 428,
      "hope": 429,
      "speci": 430,
      "hear": 431,
      "bel": 432,
      "Thank": 433,
      "conflict": 434,
      "feels": 435,
      "if": 436,
      "You": 437,
      "joy": 438,
      "try": 439,
      "ali": 440,
      "et": 441,
      "pain": 442,
      "chan": 443,
      "process": 444,
      "therap": 445,
      "happ": 446,
      "challenging": 447,
      "ated": 448,
      "who": 449,
      "Can": 450,
      "belie": 451,
      "also": 452,
      "into": 453,
      "ous": 454,
      "healing": 455,
      "anx": 456,
      "might": 457,
      "guidance": 458,
      "ue": 459,
      "tim": 460,
      "ments": 461,
      "specific": 462,
      "erful": 463,
      "od": 464,
      "em": 465,
      "others": 466,
      "gether": 467,
      "don": 468,
      "acti": 469,
      "na": 470,
      "sha": 471,
      "gre": 472,
      "fear": 473,
      "mily": 474,
      "stant": 475,
      "experienc": 476,
      "cer": 477,
      "they": 478,
      "commun": 479,
      "ner": 480,
      "takes": 481,
      "provi": 482,
      "bring": 483,
      "express": 484,
      "What": 485,
      "set": 486,
      "take": 487,
      "family": 488,
      "pect": 489,
      "grow": 490,
      "reach": 491,
      "posi": 492,
      "even": 493,
      "vers": 494,
      "ately": 495,
      "friends": 496,
      "ack": 497,
      "stress": 498,
      "sure": 499,
      "constant": 500,
      "always": 501,
      "ine": 502,
      "uring": 503,
      "des": 504,
      "whel": 505,
      "overwhel": 506,
      "ns": 507,
      "dre": 508,
      "relationships": 509,
      "tell": 510,
      "great": 511,
      "anything": 512,
      "tal": 513,
      "understanding": 514,
      "wond": 515,
      "person": 516,
      "convers": 517,
      "part": 518,
      "day": 519,
      "focus": 520,
      "deep": 521,
      "dream": 522,
      "ms": 523,
      "ry": 524,
      "bo": 525,
      "right": 526,
      "ges": 527,
      "communic": 528,
      "uild": 529,
      "going": 530,
      "aking": 531,
      "Well": 532,
      "vig": 533,
      "iety": 534,
      "navig": 535,
      "dif": 536,
      "times": 537,
      "finding": 538,
      "those": 539,
      "positive": 540,
      "ult": 541,
      "cont": 542,
      "gni": 543,
      "assion": 544,
      "ies": 545,
      "provide": 546,
      "cial": 547,
      "The": 548,
      "iness": 549,
      ",,": 550,
      "their": 551,
      "together": 552,
      "diffic": 553,
      "ze": 554,
      "believe": 555,
      "ques": 556,
      "stru": 557,
      "im": 558,
      "vities": 559,
      "activities": 560,
      "therapy": 561,
      "ility": 562,
      "anxiety": 563,
      "Is": 564,
      "ol": 565,
      "remember": 566,
      "gth": 567,
      "hard": 568,
      "rength": 569,
      "strength": 570,
      "may": 571,
      "heart": 572,
      "pa": 573,
      "navigate": 574,
      "incre": 575,
      "seeking": 576,
      "gu": 577,
      "lot": 578,
      "ourage": 579,
      "led": 580,
      "wonderful": 581,
      "appre": 582,
      "where": 583,
      "difficult": 584,
      "strate": 585,
      "itu": 586,
      "growth": 587,
      "build": 588,
      "someone": 589,
      "fill": 590,
      "addi": 591,
      "discus": 592,
      "id": 593,
      "very": 594,
      "understandable": 595,
      "ession": 596,
      "lately": 597,
      "exc": 598,
      "pres": 599,
      "something": 600,
      "thoughts": 601,
      "taking": 602,
      "gies": 603,
      "mean": 604,
      "strategies": 605,
      "fort": 606,
      "appreci": 607,
      "fferen": 608,
      "impact": 609,
      "differen": 610,
      "back": 611,
      "hob": 612,
      "had": 613,
      "tial": 614,
      "else": 615,
      "dib": 616,
      "incredib": 617,
      "ening": 618,
      "ves": 619,
      "ming": 620,
      "things": 621,
      "per": 622,
      "Let": 623,
      "def": 624,
      "concer": 625,
      "med": 626,
      "ctive": 627,
      "sa": 628,
      "sm": 629,
      "este": 630,
      "esteem": 631,
      "worth": 632,
      "discuss": 633,
      "conside": 634,
      "considered": 635,
      "down": 636,
      "during": 637,
      "strugg": 638,
      "cal": 639,
      "was": 640,
      "man": 641,
      "ra": 642,
      "But": 643,
      "oring": 644,
      "appro": 645,
      "list": 646,
      "val": 647,
      "small": 648,
      "sib": 649,
      "conversation": 650,
      "ative": 651,
      "within": 652,
      "personal": 653,
      "steps": 654,
      "emb": 655,
      "bet": 656,
      "cting": 657,
      "appreciate": 658,
      "int": 659,
      "situ": 660,
      "expl": 661,
      "approach": 662,
      "emp": 663,
      "tain": 664,
      "create": 665,
      "als": 666,
      "emotion": 667,
      "pri": 668,
      "tried": 669,
      "mu": 670,
      "trust": 671,
      "use": 672,
      "talk": 673,
      "tru": 674,
      "conflicts": 675,
      "peace": 676,
      "ability": 677,
      "Hi": 678,
      "knowled": 679,
      "affe": 680,
      "ite": 681,
      "communication": 682,
      "cl": 683,
      "ok": 684,
      "incredibly": 685,
      "oub": 686,
      "her": 687,
      "fulfill": 688,
      "au": 689,
      "keep": 690,
      "prof": 691,
      "lear": 692,
      "space": 693,
      "truly": 694,
      "whi": 695,
      "concerns": 696,
      "iti": 697,
      "hon": 698,
      "ma": 699,
      "alone": 700,
      "addiction": 701,
      "urt": 702,
      "wel": 703,
      "welcome": 704,
      "af": 705,
      "aging": 706,
      "off": 707,
      "moments": 708,
      "nat": 709,
      "atter": 710,
      "used": 711,
      "allow": 712,
      "gri": 713,
      "often": 714,
      "exploring": 715,
      "Your": 716,
      "forward": 717,
      "both": 718,
      "haven": 719,
      "share": 720,
      "acing": 721,
      "read": 722,
      "happiness": 723,
      "courage": 724,
      "does": 725,
      "sur": 726,
      "each": 727,
      "add": 728,
      "solut": 729,
      "acknowled": 730,
      "overwhelming": 731,
      "such": 732,
      "aring": 733,
      "never": 734,
      "challenges": 735,
      "ish": 736,
      "ering": 737,
      "ping": 738,
      "We": 739,
      "solutely": 740,
      "prior": 741,
      "ision": 742,
      "constantly": 743,
      "making": 744,
      "vel": 745,
      "perspe": 746,
      "doub": 747,
      "get": 748,
      "ref": 749,
      "without": 750,
      "confi": 751,
      "gl": 752,
      "experiences": 753,
      "ide": 754,
      "good": 755,
      "helpful": 756,
      "ft": 757,
      "glad": 758,
      "remind": 759,
      "gress": 760,
      "los": 761,
      "doing": 762,
      "mis": 763,
      "ud": 764,
      "compassion": 765,
      "progress": 766,
      "neg": 767,
      "zing": 768,
      "reg": 769,
      "reco": 770,
      "je": 771,
      "ron": 772,
      "ds": 773,
      "confid": 774,
      "Ab": 775,
      "signi": 776,
      "valu": 777,
      "ree": 778,
      "signifi": 779,
      "ople": 780,
      "significan": 781,
      "ces": 782,
      "Absolutely": 783,
      "give": 784,
      "willing": 785,
      "complet": 786,
      "emotional": 787,
      "ling": 788,
      "akes": 789,
      "coping": 790,
      "different": 791,
      "change": 792,
      "completely": 793,
      "people": 794,
      "ru": 795,
      "ready": 796,
      "actic": 797,
      "friendship": 798,
      "doubt": 799,
      "long": 800,
      "prioriti": 801,
      "significant": 802,
      "much": 803,
      "words": 804,
      "ier": 805,
      "pow": 806,
      "May": 807,
      "expect": 808,
      "practic": 809,
      "trying": 810,
      "pur": 811,
      "experience": 812,
      "Yes": 813,
      "issu": 814,
      "dep": 815,
      "contin": 816,
      "pport": 817,
      "motiv": 818,
      "beca": 819,
      "wr": 820,
      "essen": 821,
      "wei": 822,
      "past": 823,
      "Maybe": 824,
      "av": 825,
      "loved": 826,
      "resp": 827,
      "plan": 828,
      "address": 829,
      "connect": 830,
      "essential": 831,
      "safe": 832,
      "profession": 833,
      "seems": 834,
      "opport": 835,
      "opportun": 836,
      "lea": 837,
      "By": 838,
      "disco": 839,
      "bal": 840,
      "embr": 841,
      "fut": 842,
      "future": 843,
      "nal": 844,
      "trigg": 845,
      "bit": 846,
      "main": 847,
      "ones": 848,
      "today": 849,
      "experiencing": 850,
      "resi": 851,
      "painting": 852,
      "ious": 853,
      "along": 854,
      "listen": 855,
      "dreams": 856,
      "building": 857,
      "eng": 858,
      "fir": 859,
      "seem": 860,
      "ili": 861,
      "fur": 862,
      "achie": 863,
      "made": 864,
      "refle": 865,
      "grief": 866,
      "further": 867,
      "healthier": 868,
      "ilities": 869,
      "guess": 870,
      "ark": 871,
      "learn": 872,
      "question": 873,
      "cru": 874,
      "breakup": 875,
      "kind": 876,
      "pati": 877,
      "ssib": 878,
      "jud": 879,
      "especi": 880,
      "especially": 881,
      "using": 882,
      "again": 883,
      "idea": 884,
      "overcome": 885,
      "hobby": 886,
      "du": 887,
      "perspective": 888,
      "hy": 889,
      "He": 890,
      "sad": 891,
      "rust": 892,
      "min": 893,
      "healthy": 894,
      "because": 895,
      "overwhelmed": 896,
      "most": 897,
      "comes": 898,
      "sy": 899,
      "However": 900,
      "contri": 901,
      "alid": 902,
      "tough": 903,
      "aren": 904,
      "rec": 905,
      "enjoy": 906,
      "ary": 907,
      "cle": 908,
      "continue": 909,
      "crucial": 910,
      "professional": 911,
      "started": 912,
      "ortive": 913,
      "valid": 914,
      "found": 915,
      "tively": 916,
      "supportive": 917,
      "notic": 918,
      "suc": 919,
      "iting": 920,
      "ck": 921,
      "defin": 922,
      "everything": 923,
      "solu": 924,
      "expectations": 925,
      "strong": 926,
      "manage": 927,
      "needs": 928,
      "cep": 929,
      "contribut": 930,
      "So": 931,
      "comfort": 932,
      "inte": 933,
      "les": 934,
      "contro": 935,
      "resili": 936,
      "acknowledge": 937,
      "passion": 938,
      "ending": 939,
      "moment": 940,
      "In": 941,
      "ath": 942,
      "overall": 943,
      "worry": 944,
      "da": 945,
      "connection": 946,
      "ise": 947,
      "lost": 948,
      "judg": 949,
      "itely": 950,
      "goals": 951,
      "noticed": 952,
      "mor": 953,
      "issues": 954,
      "rest": 955,
      "tech": 956,
      "partner": 957,
      "control": 958,
      "situation": 959,
      "When": 960,
      "effort": 961,
      "makes": 962,
      "ist": 963,
      "ily": 964,
      "whenever": 965,
      "reaching": 966,
      "techni": 967,
      "Ad": 968,
      "possib": 969,
      "sec": 970,
      "deser": 971,
      "balance": 972,
      "fully": 973,
      "stem": 974,
      "only": 975,
      "prioritize": 976,
      "den": 977,
      "changes": 978,
      "bur": 979,
      "cy": 980,
      "ear": 981,
      "ps": 982,
      "bies": 983,
      "Addi": 984,
      "having": 985,
      "patter": 986,
      "As": 987,
      "They": 988,
      "honest": 989,
      "hobbies": 990,
      "better": 991,
      "true": 992,
      "free": 993,
      "ween": 994,
      "related": 995,
      "common": 996,
      "actions": 997,
      "between": 998,
      "tle": 999,
      "success": 1000,
      "must": 1001,
      "less": 1002,
      "sti": 1003,
      "hopeful": 1004,
      "ts": 1005,
      "ele": 1006,
      "ded": 1007,
      "natur": 1008,
      "oun": 1009,
      "reli": 1010,
      "ks": 1011,
      "aspect": 1012,
      "face": 1013,
      "pressure": 1014,
      "nurt": 1015,
      "hold": 1016,
      "cycle": 1017,
      "session": 1018,
      "setting": 1019,
      "ctions": 1020,
      "sist": 1021,
      "paren": 1022,
      "did": 1023,
      "respon": 1024,
      "certain": 1025,
      "form": 1026,
      "while": 1027,
      "resilience": 1028,
      "impro": 1029,
      "hes": 1030,
      "ently": 1031,
      "fore": 1032,
      "Are": 1033,
      "cri": 1034,
      "become": 1035,
      "rustr": 1036,
      "natural": 1037,
      "reali": 1038,
      "frustr": 1039,
      "first": 1040,
      "desi": 1041,
      "affecting": 1042,
      "effe": 1043,
      "cor": 1044,
      "sharing": 1045,
      "few": 1046,
      "ved": 1047,
      "ulner": 1048,
      "interest": 1049,
      "techniques": 1050,
      "poten": 1051,
      "sadness": 1052,
      "commit": 1053,
      "hesit": 1054,
      "ually": 1055,
      "orm": 1056,
      "aries": 1057,
      "still": 1058,
      "heartbreak": 1059,
      "grou": 1060,
      "bound": 1061,
      "norm": 1062,
      "gn": 1063,
      "situations": 1064,
      "path": 1065,
      "fel": 1066,
      "stay": 1067,
      "lish": 1068,
      "sight": 1069,
      "definitely": 1070,
      "normal": 1071,
      "lead": 1072,
      "vulner": 1073,
      "causing": 1074,
      "ass": 1075,
      "fin": 1076,
      "than": 1077,
      "fulfillment": 1078,
      "triggers": 1079,
      "boundaries": 1080,
      "fail": 1081,
      "put": 1082,
      "therapist": 1083,
      "expressing": 1084,
      "best": 1085,
      "My": 1086,
      "tionally": 1087,
      "recogni": 1088,
      "why": 1089,
      "lying": 1090,
      "point": 1091,
      "elebr": 1092,
      "vision": 1093,
      "powerful": 1094,
      "affect": 1095,
      "confidence": 1096,
      "indi": 1097,
      "velop": 1098,
      "spir": 1099,
      "inv": 1100,
      "present": 1101,
      "rout": 1102,
      "vidu": 1103,
      "cho": 1104,
      "por": 1105,
      "job": 1106,
      "individu": 1107,
      "fac": 1108,
      "felt": 1109,
      "ted": 1110,
      "connections": 1111,
      "Some": 1112,
      "lose": 1113,
      "enough": 1114,
      "round": 1115,
      "judgment": 1116,
      "To": 1117,
      "hand": 1118,
      "ited": 1119,
      "ensi": 1120,
      "uri": 1121,
      "erc": 1122,
      "corpor": 1123,
      "were": 1124,
      "auti": 1125,
      "sto": 1126,
      "she": 1127,
      "daily": 1128,
      "beauti": 1129,
      "everyone": 1130,
      "insec": 1131,
      "beautiful": 1132,
      "car": 1133,
      "exerc": 1134,
      "won": 1135,
      "memor": 1136,
      "deter": 1137,
      "develop": 1138,
      "loss": 1139,
      "starting": 1140,
      "deeper": 1141,
      "tool": 1142,
      "too": 1143,
      "astic": 1144,
      "Take": 1145,
      "pursu": 1146,
      "coming": 1147,
      "routine": 1148,
      "insight": 1149,
      "lt": 1150,
      "which": 1151,
      "should": 1152,
      "opportunity": 1153,
      "play": 1154,
      "mindset": 1155,
      "mid": 1156,
      "antastic": 1157,
      "maintain": 1158,
      "lon": 1159,
      "burden": 1160,
      "negative": 1161,
      "valuable": 1162,
      "specifically": 1163,
      "imag": 1164,
      "patterns": 1165,
      "wal": 1166,
      "hysi": 1167,
      "determin": 1168,
      "vent": 1169,
      "la": 1170,
      "okay": 1171,
      "offer": 1172,
      "envi": 1173,
      "reje": 1174,
      "incorpor": 1175,
      "potential": 1176,
      "head": 1177,
      "world": 1178,
      "fulness": 1179,
      "means": 1180,
      "empath": 1181,
      "ild": 1182,
      "system": 1183,
      "par": 1184,
      "fantastic": 1185,
      "excited": 1186,
      "environ": 1187,
      "Additionally": 1188,
      "real": 1189,
      "patient": 1190,
      "throughout": 1191,
      "gy": 1192,
      "before": 1193,
      "temp": 1194,
      "encourage": 1195,
      "physi": 1196,
      "conversations": 1197,
      "sugg": 1198,
      "sometimes": 1199,
      "environment": 1200,
      "ill": 1201,
      "achieve": 1202,
      "child": 1203,
      "away": 1204,
      "pre": 1205,
      "appo": 1206,
      "hurt": 1207,
      "friendships": 1208,
      "anxious": 1209,
      "doesn": 1210,
      "ot": 1211,
      "gain": 1212,
      "talking": 1213,
      "fears": 1214,
      "Hel": 1215,
      "accep": 1216,
      "weight": 1217,
      "One": 1218,
      "Hello": 1219,
      "responsib": 1220,
      "toll": 1221,
      "grate": 1222,
      "deserve": 1223,
      "Sometimes": 1224,
      "ener": 1225,
      "practicing": 1226,
      "tur": 1227,
      "ities": 1228,
      "sor": 1229,
      "fulfilling": 1230,
      "seek": 1231,
      "listening": 1232,
      "belief": 1233,
      "tension": 1234,
      "This": 1235,
      "os": 1236,
      "nature": 1237,
      "raid": 1238,
      "tran": 1239,
      "ular": 1240,
      "afraid": 1241,
      "creating": 1242,
      "struggling": 1243,
      "disappo": 1244,
      "sid": 1245,
      "happen": 1246,
      "reas": 1247,
      "selves": 1248,
      "ste": 1249,
      "inter": 1250,
      "distr": 1251,
      "solution": 1252,
      "after": 1253,
      "ben": 1254,
      "regain": 1255,
      "dec": 1256,
      "ning": 1257,
      "relief": 1258,
      "nex": 1259,
      "decision": 1260,
      "place": 1261,
      "embrace": 1262,
      "ries": 1263,
      "difference": 1264,
      "imagine": 1265,
      "career": 1266,
      "mechan": 1267,
      "mechanis": 1268,
      "him": 1269,
      "Together": 1270,
      "show": 1271,
      "beg": 1272,
      "mon": 1273,
      "qui": 1274,
      "improve": 1275,
      "cour": 1276,
      "tor": 1277,
      "vo": 1278,
      "enti": 1279,
      "around": 1280,
      "sorry": 1281,
      "fy": 1282,
      "look": 1283,
      "matter": 1284,
      "taken": 1285,
      "coun": 1286,
      "ances": 1287,
      "inten": 1288,
      "actice": 1289,
      "working": 1290,
      "cap": 1291,
      "miss": 1292,
      "motivation": 1293,
      "itement": 1294,
      "its": 1295,
      "calm": 1296,
      "practice": 1297,
      "empathy": 1298,
      "lit": 1299,
      "recently": 1300,
      "grateful": 1301,
      "consid": 1302,
      "mil": 1303,
      "exha": 1304,
      "close": 1305,
      "struggle": 1306,
      "move": 1307,
      "excitement": 1308,
      "cope": 1309,
      "hi": 1310,
      "journal": 1311,
      "inde": 1312,
      "communicate": 1313,
      "carry": 1314,
      "dedic": 1315,
      "ors": 1316,
      "Taking": 1317,
      "aspects": 1318,
      "ush": 1319,
      "heav": 1320,
      "abilities": 1321,
      "already": 1322,
      "plea": 1323,
      "engaging": 1324,
      "facing": 1325,
      "brings": 1326,
      "indeed": 1327,
      "cur": 1328,
      "resol": 1329,
      "struggles": 1330,
      "then": 1331,
      "little": 1332,
      "mindfulness": 1333,
      "discover": 1334,
      "failure": 1335,
      "happy": 1336,
      "ground": 1337,
      "meaning": 1338,
      "att": 1339,
      "argu": 1340,
      "celebr": 1341,
      "wanted": 1342,
      "energy": 1343,
      "ultiv": 1344,
      "accomp": 1345,
      "que": 1346,
      "gen": 1347,
      "rather": 1348,
      "sugges": 1349,
      "aling": 1350,
      "desire": 1351,
      "defensi": 1352,
      "say": 1353,
      "nurturing": 1354,
      "mic": 1355,
      "dr": 1356,
      "envision": 1357,
      "surround": 1358,
      "genu": 1359,
      "ups": 1360,
      "Hey": 1361,
      "disappoint": 1362,
      "And": 1363,
      "rejection": 1364,
      "begin": 1365,
      "col": 1366,
      "determination": 1367,
      "mechanisms": 1368,
      "solace": 1369,
      "ises": 1370,
      "left": 1371,
      "weigh": 1372,
      "There": 1373,
      "zed": 1374,
      "stu": 1375,
      "writing": 1376,
      "sk": 1377,
      "ression": 1378,
      "mental": 1379,
      "physical": 1380,
      "ea": 1381,
      "isol": 1382,
      "critic": 1383,
      "recovery": 1384,
      "fl": 1385,
      "cei": 1386,
      "cultiv": 1387,
      "haps": 1388,
      "reflect": 1389,
      "ism": 1390,
      "light": 1391,
      "inspir": 1392,
      "eep": 1393,
      "helps": 1394,
      "focusing": 1395,
      "bi": 1396,
      "clear": 1397,
      "ince": 1398,
      "underlying": 1399,
      "shift": 1400,
      "invol": 1401,
      "recognize": 1402,
      "embracing": 1403,
      "Those": 1404,
      "midst": 1405,
      "ax": 1406,
      "quite": 1407,
      "medi": 1408,
      "given": 1409,
      "tend": 1410,
      "memories": 1411,
      "negle": 1412,
      "ues": 1413,
      "exhaust": 1414,
      "maybe": 1415,
      "acting": 1416,
      "accept": 1417,
      "same": 1418,
      "group": 1419,
      "fost": 1420,
      "men": 1421,
      "ourselves": 1422,
      "anyone": 1423,
      "setback": 1424,
      "pose": 1425,
      "relax": 1426,
      "simp": 1427,
      "stead": 1428,
      "dy": 1429,
      "individuals": 1430,
      "skill": 1431,
      "contribute": 1432,
      "namic": 1433,
      "willingness": 1434,
      "uni": 1435,
      "shared": 1436,
      "motivated": 1437,
      "parents": 1438,
      "uncertain": 1439,
      "ual": 1440,
      "anymore": 1441,
      "inner": 1442,
      "handle": 1443,
      "purpose": 1444,
      "asy": 1445,
      "honor": 1446,
      "arri": 1447,
      "dynamic": 1448,
      "reached": 1449,
      "identi": 1450,
      "once": 1451,
      "rent": 1452,
      "trans": 1453,
      "guide": 1454,
      "Ex": 1455,
      "Keep": 1456,
      "grad": 1457,
      "oud": 1458,
      "tools": 1459,
      "connecting": 1460,
      "discovery": 1461,
      "clar": 1462,
      "painful": 1463,
      "journaling": 1464,
      "musi": 1465,
      "value": 1466,
      "easy": 1467,
      "social": 1468,
      "current": 1469,
      "engage": 1470,
      "gent": 1471,
      "ble": 1472,
      "meaningful": 1473,
      "commitment": 1474,
      "areas": 1475,
      "active": 1476,
      "loving": 1477,
      "Would": 1478,
      "che": 1479,
      "ates": 1480,
      "level": 1481,
      "stronger": 1482,
      "pic": 1483,
      "bene": 1484,
      "next": 1485,
      "confron": 1486,
      "unique": 1487,
      "regard": 1488,
      "If": 1489,
      "empow": 1490,
      "thank": 1491,
      "istic": 1492,
      "allows": 1493,
      "exercises": 1494,
      "ellent": 1495,
      "opportunities": 1496,
      "gentle": 1497,
      "rebuild": 1498,
      "profound": 1499,
      "managing": 1500,
      "heavy": 1501,
      "clarity": 1502,
      "outside": 1503,
      "meet": 1504,
      "setbacks": 1505,
      "possible": 1506,
      "since": 1507,
      "power": 1508,
      "yet": 1509,
      "brea": 1510,
      "curi": 1511,
      "milar": 1512,
      "strengths": 1513,
      "similar": 1514,
      "ficial": 1515,
      "cape": 1516,
      "confident": 1517,
      "shake": 1518,
      "vulnerability": 1519,
      "addition": 1520,
      "reflection": 1521,
      "tre": 1522,
      "ctiv": 1523,
      "ob": 1524,
      "validation": 1525,
      "weighing": 1526,
      "depend": 1527,
      "lives": 1528,
      "skills": 1529,
      "stuck": 1530,
      "inspiring": 1531,
      "guilt": 1532,
      "tray": 1533,
      "beneficial": 1534,
      "transform": 1535,
      "outlet": 1536,
      "practices": 1537,
      "accomplish": 1538,
      "ctively": 1539,
      "tas": 1540,
      "suppose": 1541,
      "necess": 1542,
      "colle": 1543,
      "arise": 1544,
      "spending": 1545,
      "consu": 1546,
      "hesitant": 1547,
      "escape": 1548,
      "cared": 1549,
      "depression": 1550,
      "key": 1551,
      "learning": 1552,
      "finan": 1553,
      "challenge": 1554,
      "incorporating": 1555,
      "low": 1556,
      "state": 1557,
      "comfortable": 1558,
      "opening": 1559,
      "vis": 1560,
      "aged": 1561,
      "ources": 1562,
      "heard": 1563,
      "turn": 1564,
      "ining": 1565,
      "eliness": 1566,
      "defensive": 1567,
      "ng": 1568,
      "getting": 1569,
      "high": 1570,
      "mist": 1571,
      "interests": 1572,
      "year": 1573,
      "ativ": 1574,
      "insights": 1575,
      "resolution": 1576,
      "perfe": 1577,
      "tempor": 1578,
      "celebrate": 1579,
      "actively": 1580,
      "needed": 1581,
      "creative": 1582,
      "weak": 1583,
      "acknowledging": 1584,
      "heartening": 1585,
      "thinking": 1586,
      "embark": 1587,
      "wa": 1588,
      "his": 1589,
      "moving": 1590,
      "deeply": 1591,
      "respect": 1592,
      "affected": 1593,
      "betray": 1594,
      "amidst": 1595,
      "criticism": 1596,
      "encouragement": 1597,
      "excellent": 1598,
      "..": 1599,
      "realize": 1600,
      "ang": 1601,
      "patience": 1602,
      "spe": 1603,
      "stances": 1604,
      "Hon": 1605,
      "financial": 1606,
      "commend": 1607,
      "pleasure": 1608,
      "hesitate": 1609,
      "chance": 1610,
      "alle": 1611,
      "hoto": 1612,
      "allevi": 1613,
      "imm": 1614,
      "Honest": 1615,
      "mm": 1616,
      "carrying": 1617,
      "line": 1618,
      "last": 1619,
      "playing": 1620,
      "event": 1621,
      "solutions": 1622,
      "necessary": 1623,
      "comple": 1624,
      "disheartening": 1625,
      "effectively": 1626,
      "role": 1627,
      "values": 1628,
      "reassur": 1629,
      "Per": 1630,
      "scared": 1631,
      "helping": 1632,
      "passions": 1633,
      "far": 1634,
      "colleag": 1635,
      "del": 1636,
      "apart": 1637,
      "oid": 1638,
      "breathing": 1639,
      "frustrating": 1640,
      "avoid": 1641,
      "cultivate": 1642,
      "sign": 1643,
      "alleviate": 1644,
      "ried": 1645,
      "pursuing": 1646,
      "confront": 1647,
      "hood": 1648,
      "ticular": 1649,
      "particular": 1650,
      "sessions": 1651,
      "itness": 1652,
      "action": 1653,
      "havi": 1654,
      "beliefs": 1655,
      "Honestly": 1656,
      "dire": 1657,
      "wrong": 1658,
      "walks": 1659,
      "Perhaps": 1660,
      "behavi": 1661,
      "cted": 1662,
      "hether": 1663,
      "Bre": 1664,
      "grap": 1665,
      "aw": 1666,
      "cau": 1667,
      "questions": 1668,
      "didn": 1669,
      "mix": 1670,
      "allowing": 1671,
      "net": 1672,
      "flu": 1673,
      "ines": 1674,
      "push": 1675,
      "curious": 1676,
      "emotionally": 1677,
      "ctives": 1678,
      "music": 1679,
      "groups": 1680,
      "gue": 1681,
      "gradually": 1682,
      "tasks": 1683,
      "hotograp": 1684,
      "exter": 1685,
      "urity": 1686,
      "ith": 1687,
      "asp": 1688,
      "perspectives": 1689,
      "happened": 1690,
      "alities": 1691,
      "ody": 1692,
      "ask": 1693,
      "Op": 1694,
      "discussing": 1695,
      "ablish": 1696,
      "discour": 1697,
      "incredible": 1698,
      "rebuilding": 1699,
      "ser": 1700,
      "witness": 1701,
      "agree": 1702,
      "assist": 1703,
      "connected": 1704,
      "impacting": 1705,
      "external": 1706,
      "drain": 1707,
      "elf": 1708,
      "Build": 1709,
      "Building": 1710,
      "effective": 1711,
      "marri": 1712,
      "Now": 1713,
      "brought": 1714,
      "reality": 1715,
      "foundation": 1716,
      "hind": 1717,
      "maintaining": 1718,
      "distract": 1719,
      "arch": 1720,
      "experienced": 1721,
      "bond": 1722,
      "questioning": 1723,
      "acceptance": 1724,
      "responsibility": 1725,
      "Be": 1726,
      "goal": 1727,
      "ange": 1728,
      "influ": 1729,
      "har": 1730,
      "ons": 1731,
      "qualities": 1732,
      "ource": 1733,
      "aside": 1734,
      "mistakes": 1735,
      "though": 1736,
      "aware": 1737,
      "additional": 1738,
      "eting": 1739,
      "temporary": 1740,
      "dealing": 1741,
      "leep": 1742,
      "childhood": 1743,
      "dark": 1744,
      "urities": 1745,
      "peri": 1746,
      "insecurities": 1747,
      "cha": 1748,
      "focused": 1749,
      "loneliness": 1750,
      "lack": 1751,
      "clos": 1752,
      "reson": 1753,
      "consider": 1754,
      "sc": 1755,
      "nurture": 1756,
      "tici": 1757,
      "big": 1758,
      "ape": 1759,
      "giving": 1760,
      "Eng": 1761,
      "utic": 1762,
      "caught": 1763,
      "went": 1764,
      "apeutic": 1765,
      "worried": 1766,
      "body": 1767,
      "therapeutic": 1768,
      "ga": 1769,
      "vice": 1770,
      "counsel": 1771,
      "imple": 1772,
      "ice": 1773,
      "These": 1774,
      "ken": 1775,
      "rief": 1776,
      "ched": 1777,
      "grie": 1778,
      "wife": 1779,
      "marriage": 1780,
      "vulnerable": 1781,
      "regarding": 1782,
      "importance": 1783,
      "ost": 1784,
      "network": 1785,
      "ail": 1786,
      "tors": 1787,
      "photograp": 1788,
      "medit": 1789,
      "var": 1790,
      "load": 1791,
      "Engaging": 1792,
      "resources": 1793,
      "identify": 1794,
      "anc": 1795,
      "colleagues": 1796,
      "advice": 1797,
      "define": 1798,
      "many": 1799,
      "search": 1800,
      "trau": 1801,
      "ativity": 1802,
      "itude": 1803,
      "exhausting": 1804,
      "Could": 1805,
      "strengthen": 1806,
      "reconnect": 1807,
      "fall": 1808,
      "admi": 1809,
      "whether": 1810,
      "amp": 1811,
      "mom": 1812,
      "St": 1813,
      "implement": 1814,
      "ss": 1815,
      "rediscover": 1816,
      "forting": 1817,
      "various": 1818,
      "prioritizing": 1819,
      "comforting": 1820,
      "establish": 1821,
      "mention": 1822,
      "Con": 1823,
      "lty": 1824,
      "ast": 1825,
      "achievements": 1826,
      "alous": 1827,
      "mit": 1828,
      "short": 1829,
      "meditation": 1830,
      "filled": 1831,
      "guilty": 1832,
      "band": 1833,
      "helped": 1834,
      "racing": 1835,
      "ths": 1836,
      "concern": 1837,
      "meeting": 1838,
      "Self": 1839,
      "arguments": 1840,
      "apped": 1841,
      "osing": 1842,
      "downs": 1843,
      "source": 1844,
      "happening": 1845,
      "sleep": 1846,
      "expression": 1847,
      "Do": 1848,
      "proble": 1849,
      "knowing": 1850,
      "incorporate": 1851,
      "grat": 1852,
      "options": 1853,
      "genuin": 1854,
      "shows": 1855,
      "genuinely": 1856,
      "usi": 1857,
      "contributing": 1858,
      "boost": 1859,
      "nu": 1860,
      "symp": 1861,
      "wee": 1862,
      "reminding": 1863,
      "faced": 1864,
      "vor": 1865,
      "bat": 1866,
      "Not": 1867,
      "recei": 1868,
      "oking": 1869,
      "jealous": 1870,
      "capable": 1871,
      "battle": 1872,
      "regre": 1873,
      "uncertainty": 1874,
      "another": 1875,
      "losing": 1876,
      "disappointment": 1877,
      "years": 1878,
      "abor": 1879,
      "resolving": 1880,
      "sympto": 1881,
      "simple": 1882,
      "community": 1883,
      "aving": 1884,
      "addressing": 1885,
      "worries": 1886,
      "openly": 1887,
      "considering": 1888,
      "exercise": 1889,
      "complex": 1890,
      "anger": 1891,
      "trapped": 1892,
      "Having": 1893,
      "atch": 1894,
      "vit": 1895,
      "committed": 1896,
      "pursue": 1897,
      "chool": 1898,
      "hus": 1899,
      "husband": 1900,
      "embar": 1901,
      "aim": 1902,
      "possibilities": 1903,
      "stance": 1904,
      "Se": 1905,
      "bro": 1906,
      "photography": 1907,
      "Grief": 1908,
      "initi": 1909,
      "symptoms": 1910,
      "vered": 1911,
      "realistic": 1912,
      "becoming": 1913,
      "relaxation": 1914,
      "Expl": 1915,
      "ality": 1916,
      "fting": 1917,
      "consist": 1918,
      "sub": 1919,
      "ding": 1920,
      "disagree": 1921,
      "lean": 1922,
      "fre": 1923,
      "guiding": 1924,
      "Ther": 1925,
      "Therap": 1926,
      "school": 1927,
      "non": 1928,
      "Exploring": 1929,
      "holding": 1930,
      "workload": 1931,
      "days": 1932,
      "respond": 1933,
      "foster": 1934,
      "cto": 1935,
      "Break": 1936,
      "ama": 1937,
      "bright": 1938,
      "She": 1939,
      "inion": 1940,
      "opinion": 1941,
      "regular": 1942,
      "understands": 1943,
      "Therapy": 1944,
      "ahead": 1945,
      "align": 1946,
      "gratitude": 1947,
      "trigger": 1948,
      "atten": 1949,
      "instead": 1950,
      "Breakups": 1951,
      "tired": 1952,
      "sched": 1953,
      "victo": 1954,
      "lame": 1955,
      "lines": 1956,
      "stood": 1957,
      "genuine": 1958,
      "ade": 1959,
      "joining": 1960,
      "dynamics": 1961,
      "raw": 1962,
      "leave": 1963,
      "lift": 1964,
      "See": 1965,
      "amazing": 1966,
      "onto": 1967,
      "escal": 1968,
      "got": 1969,
      "strain": 1970,
      "llabor": 1971,
      "Emb": 1972,
      "requi": 1973,
      "responsibilities": 1974,
      "influenc": 1975,
      "ile": 1976,
      "aspir": 1977,
      "done": 1978,
      "perfect": 1979,
      "vous": 1980,
      "solely": 1981,
      "ensure": 1982,
      "frustration": 1983,
      "discouraged": 1984,
      "cou": 1985,
      "suggestions": 1986,
      "llow": 1987,
      "bus": 1988,
      "dri": 1989,
      "weakness": 1990,
      "intense": 1991,
      "thentic": 1992,
      "insecurity": 1993,
      "memory": 1994,
      "regret": 1995,
      "transformative": 1996,
      "dent": 1997,
      "blame": 1998,
      "arti": 1999,
      "cious": 2000,
      "nervous": 2001,
      "While": 2002,
      "explored": 2003,
      "Opening": 2004,
      "actually": 2005,
      "authentic": 2006,
      "collabor": 2007,
      "numb": 2008,
      "compassionate": 2009,
      "uses": 2010,
      "issue": 2011,
      "um": 2012,
      "understood": 2013,
      "months": 2014,
      "redu": 2015,
      "tered": 2016,
      "proud": 2017,
      "distress": 2018,
      "course": 2019,
      "walk": 2020,
      "vital": 2021,
      "peaceful": 2022,
      "Celebr": 2023,
      "harmon": 2024,
      "proactive": 2025,
      "impacted": 2026,
      "stac": 2027,
      "dead": 2028,
      "Lately": 2029,
      "obstac": 2030,
      "worse": 2031,
      "night": 2032,
      "Sur": 2033,
      "empowering": 2034,
      "courageous": 2035,
      "local": 2036,
      "roo": 2037,
      "behavior": 2038,
      "Co": 2039,
      "ight": 2040,
      "pite": 2041,
      "Reco": 2042,
      "draw": 2043,
      "zation": 2044,
      "thri": 2045,
      "affir": 2046,
      "factors": 2047,
      "claim": 2048,
      "brush": 2049,
      "isn": 2050,
      "prote": 2051,
      "immense": 2052,
      "bul": 2053,
      "causes": 2054,
      "Losing": 2055,
      "trauma": 2056,
      "surrounding": 2057,
      "deserving": 2058,
      "char": 2059,
      "Surround": 2060,
      "asser": 2061,
      "Ch": 2062,
      "couldn": 2063,
      "aspirations": 2064,
      "parenting": 2065,
      "behind": 2066,
      "intensi": 2067,
      "veness": 2068,
      "dependence": 2069,
      "lease": 2070,
      "tw": 2071,
      "possibility": 2072,
      "presence": 2073,
      "aming": 2074,
      "reclaim": 2075,
      "alter": 2076,
      "suggestion": 2077,
      "tivity": 2078,
      "pping": 2079,
      "Sh": 2080,
      "trusted": 2081,
      "attention": 2082,
      "vering": 2083,
      "ices": 2084,
      "achieving": 2085,
      "putting": 2086,
      "kindness": 2087,
      "surpr": 2088,
      "rl": 2089,
      "percei": 2090,
      "class": 2091,
      "topic": 2092,
      "breaks": 2093,
      "Addiction": 2094,
      "abuse": 2095,
      "girl": 2096,
      "quality": 2097,
      "efforts": 2098,
      "doubts": 2099,
      "mand": 2100,
      "voice": 2101,
      "problems": 2102,
      "girlfriend": 2103,
      "demand": 2104,
      "incl": 2105,
      "brighter": 2106,
      "void": 2107,
      "fiance": 2108,
      "fiancee": 2109,
      "optim": 2110,
      "betrayal": 2111,
      "realized": 2112,
      "altern": 2113,
      "No": 2114,
      "ject": 2115,
      "week": 2116,
      "ub": 2117,
      "speaking": 2118,
      "dedicated": 2119,
      "gli": 2120,
      "deal": 2121,
      "deadlines": 2122,
      "period": 2123,
      "contributed": 2124,
      "oc": 2125,
      "gather": 2126,
      "spi": 2127,
      "creativity": 2128,
      "resu": 2129,
      "lasting": 2130,
      "unting": 2131,
      "Instead": 2132,
      "individual": 2133,
      "looking": 2134,
      "ago": 2135,
      "commendable": 2136,
      "super": 2137,
      "attemp": 2138,
      "itar": 2139,
      "lies": 2140,
      "guitar": 2141,
      "dismiss": 2142,
      "talked": 2143,
      "affirm": 2144,
      "Of": 2145,
      "victories": 2146,
      "rass": 2147,
      "closer": 2148,
      "embarrass": 2149,
      "ens": 2150,
      "hu": 2151,
      "cloud": 2152,
      "choices": 2153,
      "brave": 2154,
      "aut": 2155,
      "minded": 2156,
      "rely": 2157,
      "breath": 2158,
      "cent": 2159,
      "stressed": 2160,
      "pattern": 2161,
      "Trust": 2162,
      "becomes": 2163,
      "neglected": 2164,
      "vorce": 2165,
      "starts": 2166,
      "dedication": 2167,
      "feed": 2168,
      "gives": 2169,
      "lonely": 2170,
      "Surrounding": 2171,
      "examp": 2172,
      "visor": 2173,
      "implementing": 2174,
      "bl": 2175,
      "cir": 2176,
      "An": 2177,
      "cally": 2178,
      "inspi": 2179,
      "reassuring": 2180,
      "boy": 2181,
      "misunderstanding": 2182,
      "boyfriend": 2183,
      "old": 2184,
      "events": 2185,
      "produ": 2186,
      "fostering": 2187,
      "ged": 2188,
      "frustrated": 2189,
      "desires": 2190,
      "stic": 2191,
      "eah": 2192,
      "timately": 2193,
      "tu": 2194,
      "ule": 2195,
      "depth": 2196,
      "obstacles": 2197,
      "Yeah": 2198,
      "attered": 2199,
      "insecure": 2200,
      "grieve": 2201,
      "inside": 2202,
      "improving": 2203,
      "shoulders": 2204,
      "yond": 2205,
      "keeps": 2206,
      "ouse": 2207,
      "enh": 2208,
      "vie": 2209,
      "draining": 2210,
      "slow": 2211,
      "adequ": 2212,
      "alo": 2213,
      "prevent": 2214,
      "members": 2215,
      "ased": 2216,
      "ongoing": 2217,
      "levels": 2218,
      "wonder": 2219,
      "percep": 2220,
      "longing": 2221,
      "navigating": 2222,
      "falling": 2223,
      "beaut": 2224,
      "beauty": 2225,
      "Recogni": 2226,
      "run": 2227,
      "stri": 2228,
      "schedule": 2229,
      "Seeking": 2230,
      "dialo": 2231,
      "ideas": 2232,
      "beyond": 2233,
      "accomplishments": 2234,
      "...": 2235,
      "awareness": 2236,
      "comparing": 2237,
      "compare": 2238,
      "daunting": 2239,
      "Whenever": 2240,
      "opinions": 2241,
      "realization": 2242,
      "discussion": 2243,
      "inadequ": 2244,
      "dialogue": 2245,
      "admit": 2246,
      "gns": 2247,
      "Recognizing": 2248,
      "promis": 2249,
      "ples": 2250,
      "Thanks": 2251,
      "serve": 2252,
      "stability": 2253,
      "please": 2254,
      "enth": 2255,
      "resh": 2256,
      "root": 2257,
      "enthusi": 2258,
      "nel": 2259,
      "supervisor": 2260,
      "isolated": 2261,
      "balanc": 2262,
      "ple": 2263,
      "atters": 2264,
      "benef": 2265,
      "exhausted": 2266,
      "speciali": 2267,
      "disappointed": 2268,
      "glimm": 2269,
      "matters": 2270,
      "uilt": 2271,
      "isolation": 2272,
      "acy": 2273,
      "tra": 2274,
      "searching": 2275,
      "resonate": 2276,
      "shattered": 2277,
      "ticip": 2278,
      "two": 2279,
      "letting": 2280,
      "perform": 2281,
      "newfound": 2282,
      "finances": 2283,
      "promo": 2284,
      "unex": 2285,
      "hop": 2286,
      "determined": 2287,
      "sho": 2288,
      "recent": 2289,
      "Sharing": 2290,
      "living": 2291,
      "faith": 2292,
      "For": 2293,
      "outcome": 2294,
      "ination": 2295,
      "mend": 2296,
      "worthy": 2297,
      "certainly": 2298,
      "view": 2299,
      "breaking": 2300,
      "reminder": 2301,
      "jealousy": 2302,
      "feedback": 2303,
      "ages": 2304,
      "judged": 2305,
      "bother": 2306,
      "glimmer": 2307,
      "bullying": 2308,
      "assistance": 2309,
      "children": 2310,
      "Find": 2311,
      "area": 2312,
      "treat": 2313,
      "alive": 2314,
      "discussed": 2315,
      "reconnecting": 2316,
      "standing": 2317,
      "sex": 2318,
      "affirmations": 2319,
      "gard": 2320,
      "decisions": 2321,
      "sive": 2322,
      "aven": 2323,
      "despite": 2324,
      "recognizing": 2325,
      "invest": 2326,
      "supporting": 2327,
      "Ac": 2328,
      "keeping": 2329,
      "ans": 2330,
      "ended": 2331,
      "count": 2332,
      "counseling": 2333,
      "argument": 2334,
      "comb": 2335,
      "usion": 2336,
      "easi": 2337,
      "exciting": 2338,
      "Fe": 2339,
      "row": 2340,
      "finally": 2341,
      "vol": 2342,
      "release": 2343,
      "home": 2344,
      "delve": 2345,
      "Feel": 2346,
      "Just": 2347,
      "outlets": 2348,
      "war": 2349,
      "arily": 2350,
      "parent": 2351,
      "providing": 2352,
      "direction": 2353,
      "charge": 2354,
      "online": 2355,
      "allowed": 2356,
      "descri": 2357,
      "fied": 2358,
      "statements": 2359,
      "collaborative": 2360,
      "reassurance": 2361,
      "Finding": 2362,
      "aly": 2363,
      "cident": 2364,
      "couples": 2365,
      "physically": 2366,
      "Our": 2367,
      "ures": 2368,
      "differently": 2369,
      "Sure": 2370,
      "encour": 2371,
      "alternative": 2372,
      "hea": 2373,
      "difficul": 2374,
      "sexual": 2375,
      "chest": 2376,
      "roll": 2377,
      "bothering": 2378,
      "ends": 2379,
      "cares": 2380,
      "perception": 2381,
      "With": 2382,
      "stems": 2383,
      "Embracing": 2384,
      "successful": 2385,
      "scary": 2386,
      "enhance": 2387,
      "balanced": 2388,
      "distant": 2389,
      "bri": 2390,
      "tou": 2391,
      "manageable": 2392,
      "linear": 2393,
      "pected": 2394,
      "growing": 2395,
      "tice": 2396,
      "neglecting": 2397,
      "seen": 2398,
      "confused": 2399,
      "dive": 2400,
      "overcoming": 2401,
      "mark": 2402,
      "pin": 2403,
      "heavi": 2404,
      "avail": 2405,
      "suf": 2406,
      "unexpected": 2407,
      "divorce": 2408,
      "mission": 2409,
      "book": 2410,
      "direct": 2411,
      "Heart": 2412,
      "protect": 2413,
      "wasn": 2414,
      "avoiding": 2415,
      "aris": 2416,
      "edge": 2417,
      "response": 2418,
      "built": 2419,
      "involved": 2420,
      "shot": 2421,
      "Being": 2422,
      "struct": 2423,
      "habit": 2424,
      "hit": 2425,
      "renew": 2426,
      "spo": 2427,
      "mentioned": 2428,
      "ered": 2429,
      "pinpoint": 2430,
      "project": 2431,
      "cating": 2432,
      "constru": 2433,
      "hour": 2434,
      "mess": 2435,
      "fresh": 2436,
      "Healing": 2437,
      "tially": 2438,
      "asm": 2439,
      "clo": 2440,
      "heavily": 2441,
      "Heartbreak": 2442,
      "cra": 2443,
      "enthusiasm": 2444,
      "pace": 2445,
      "whole": 2446,
      "Def": 2447,
      "Every": 2448,
      "met": 2449,
      "intensify": 2450,
      "misunderstandings": 2451,
      "known": 2452,
      "honesty": 2453,
      "reduce": 2454,
      "perhaps": 2455,
      "permission": 2456,
      "spend": 2457,
      "fu": 2458,
      "leaving": 2459,
      "initely": 2460,
      "Definitely": 2461,
      "staying": 2462,
      "resolved": 2463,
      "anic": 2464,
      "bringing": 2465,
      "renewed": 2466,
      "reating": 2467,
      "interactions": 2468,
      "notice": 2469,
      "vile": 2470,
      "privile": 2471,
      "attending": 2472,
      "darkness": 2473,
      "thetic": 2474,
      "available": 2475,
      "nothing": 2476,
      "nder": 2477,
      "On": 2478,
      "zes": 2479,
      "approaches": 2480,
      "vable": 2481,
      "Celebrate": 2482,
      "cheating": 2483,
      "Under": 2484,
      "learned": 2485,
      "athetic": 2486,
      "privilege": 2487,
      "reasons": 2488,
      "broken": 2489,
      "describe": 2490,
      "range": 2491,
      "heaviness": 2492,
      "instances": 2493,
      "fuel": 2494,
      "example": 2495,
      "gge": 2496,
      "trigge": 2497,
      "triggered": 2498,
      "holds": 2499,
      "bigg": 2500,
      "wondering": 2501,
      "admir": 2502,
      "soci": 2503,
      "ously": 2504,
      "embarrassed": 2505,
      "panic": 2506,
      "gry": 2507,
      "reflecting": 2508,
      "appreh": 2509,
      "wound": 2510,
      "goes": 2511,
      "sou": 2512,
      "Change": 2513,
      "til": 2514,
      "pushing": 2515,
      "soul": 2516,
      "ase": 2517,
      "empathetic": 2518,
      "spark": 2519,
      "ised": 2520,
      "angry": 2521,
      "ju": 2522,
      "continu": 2523,
      "minut": 2524,
      "remark": 2525,
      "channel": 2526,
      "actly": 2527,
      "spirit": 2528,
      "cond": 2529,
      "ease": 2530,
      "Acknowled": 2531,
      "busy": 2532,
      "Set": 2533,
      "hamed": 2534,
      "ashamed": 2535,
      "lic": 2536,
      "perfection": 2537,
      "catch": 2538,
      "disagreements": 2539,
      "hol": 2540,
      "practical": 2541,
      "shock": 2542,
      "resolve": 2543,
      "developing": 2544,
      "ring": 2545,
      "Creating": 2546,
      "ign": 2547,
      "celebrating": 2548,
      "became": 2549,
      "honestly": 2550,
      "perceive": 2551,
      "cons": 2552,
      "live": 2553,
      "provided": 2554,
      "ensive": 2555,
      "fami": 2556,
      "distractions": 2557,
      "Start": 2558,
      "admirable": 2559,
      "mut": 2560,
      "positively": 2561,
      "hours": 2562,
      "impo": 2563,
      "Tell": 2564,
      "wish": 2565,
      "valued": 2566,
      "accomplishment": 2567,
      "forget": 2568,
      "cultivating": 2569,
      "impossib": 2570,
      "full": 2571,
      "uplift": 2572,
      "relie": 2573,
      "upd": 2574,
      "term": 2575,
      "harmonious": 2576,
      "leads": 2577,
      "chap": 2578,
      "judgmental": 2579,
      "speak": 2580,
      "reading": 2581,
      "wavering": 2582,
      "consistent": 2583,
      "manner": 2584,
      "requires": 2585,
      "seeing": 2586,
      "particularly": 2587,
      "confusion": 2588,
      "unwavering": 2589,
      "uding": 2590,
      "follow": 2591,
      "ator": 2592,
      "doubting": 2593,
      "gust": 2594,
      "disgust": 2595,
      "ris": 2596,
      "spouse": 2597,
      "saying": 2598,
      "ined": 2599,
      "chapter": 2600,
      "caused": 2601,
      "longer": 2602,
      "Setting": 2603,
      "impossible": 2604,
      "defensiveness": 2605,
      "avenues": 2606,
      "simply": 2607,
      "covered": 2608,
      ".,": 2609,
      "Understanding": 2610,
      "ourish": 2611,
      "constructive": 2612,
      "gone": 2613,
      "team": 2614,
      "Acknowledging": 2615,
      "disconnected": 2616,
      "spoken": 2617,
      "empt": 2618,
      "absolutely": 2619,
      "emptiness": 2620,
      "evi": 2621,
      "cing": 2622,
      "cum": 2623,
      "defined": 2624,
      "suggest": 2625,
      "effect": 2626,
      "unsure": 2627,
      "Comm": 2628,
      "talent": 2629,
      "ord": 2630,
      "unco": 2631,
      "seri": 2632,
      "ency": 2633,
      "happier": 2634,
      "empty": 2635,
      "Fa": 2636,
      "potentially": 2637,
      "remarkable": 2638,
      "turned": 2639,
      "critici": 2640,
      "hurtful": 2641,
      "Family": 2642,
      "involves": 2643,
      "react": 2644,
      "lau": 2645,
      "smaller": 2646,
      "missing": 2647,
      "affects": 2648,
      "Commun": 2649,
      "ilit": 2650,
      "aster": 2651,
      "harder": 2652,
      "upset": 2653,
      "giveness": 2654,
      "conscious": 2655,
      "Communic": 2656,
      "counselor": 2657,
      "took": 2658,
      "Along": 2659,
      "ational": 2660,
      "dependent": 2661,
      "optimistic": 2662,
      "easier": 2663,
      "comprom": 2664,
      "distracted": 2665,
      "incident": 2666,
      "artistic": 2667,
      "roller": 2668,
      "wind": 2669,
      "coaster": 2670,
      "ured": 2671,
      "usu": 2672,
      "answ": 2673,
      "mutual": 2674,
      "mea": 2675,
      "achievable": 2676,
      "interesting": 2677,
      "infor": 2678,
      "pie": 2679,
      "bed": 2680,
      "seemed": 2681,
      "naling": 2682,
      "tense": 2683,
      "receive": 2684,
      "dening": 2685,
      "remain": 2686,
      "distance": 2687,
      "said": 2688,
      "ral": 2689,
      "admire": 2690,
      "neglect": 2691,
      "burdening": 2692,
      "touch": 2693,
      "Jour": 2694,
      "Wr": 2695,
      "rup": 2696,
      "Journaling": 2697,
      "created": 2698,
      "creep": 2699,
      "cause": 2700,
      "behaviors": 2701,
      "yle": 2702,
      "dle": 2703,
      "unknown": 2704,
      "second": 2705,
      "consumed": 2706,
      "explain": 2707,
      "communicating": 2708,
      "unresolved": 2709,
      "soli": 2710,
      "consuming": 2711,
      "including": 2712,
      "Writing": 2713,
      "minutes": 2714,
      "quick": 2715,
      "closure": 2716,
      "involve": 2717,
      "ceed": 2718,
      "sister": 2719,
      "sever": 2720,
      "media": 2721,
      "alongside": 2722,
      "pped": 2723,
      "resilient": 2724,
      "neut": 2725,
      "doc": 2726,
      "circum": 2727,
      "fati": 2728,
      "ctually": 2729,
      "milest": 2730,
      "ultimately": 2731,
      "wounds": 2732,
      "discovered": 2733,
      "barri": 2734,
      "mood": 2735,
      "hiking": 2736,
      "neutral": 2737,
      "result": 2738,
      "solid": 2739,
      "replaying": 2740,
      "road": 2741,
      "ey": 2742,
      "habits": 2743,
      "inting": 2744,
      "circumstances": 2745,
      "Al": 2746,
      "ize": 2747,
      "Communication": 2748,
      "offering": 2749,
      "Actually": 2750,
      "rejected": 2751,
      "invaluable": 2752,
      "Fear": 2753,
      "ressed": 2754,
      "test": 2755,
      "demands": 2756,
      "smallest": 2757,
      "aces": 2758,
      "apprehensive": 2759,
      "rollercoaster": 2760,
      "provides": 2761,
      "adds": 2762,
      "resonates": 2763,
      "surrounded": 2764,
      "worrying": 2765,
      "encoun": 2766,
      "leaves": 2767,
      "dden": 2768,
      "works": 2769,
      "drown": 2770,
      "sudden": 2771,
      "fix": 2772,
      "hasi": 2773,
      "deci": 2774,
      "sat": 2775,
      "ork": 2776,
      "discussions": 2777,
      "supported": 2778,
      "currently": 2779,
      "tedly": 2780,
      "oubtedly": 2781,
      "undoubtedly": 2782,
      "gardening": 2783,
      "special": 2784,
      "shame": 2785,
      "aligns": 2786,
      "cohol": 2787,
      "chaos": 2788,
      "centr": 2789,
      "accompany": 2790,
      "immedi": 2791,
      "Right": 2792,
      "facilit": 2793,
      "concentr": 2794,
      "productive": 2795,
      "pub": 2796,
      "pair": 2797,
      "Mind": 2798,
      "suffo": 2799,
      "unable": 2800,
      "hearing": 2801,
      "betrayed": 2802,
      "unhappy": 2803,
      "track": 2804,
      "stepping": 2805,
      "Anx": 2806,
      "intentions": 2807,
      "pi": 2808,
      "onging": 2809,
      "manif": 2810,
      "surprised": 2811,
      "interested": 2812,
      "emphasi": 2813,
      "forgiveness": 2814,
      "Anxiety": 2815,
      "dow": 2816,
      "shadow": 2817,
      "hoping": 2818,
      "mul": 2819,
      "ising": 2820,
      "belonging": 2821,
      "grieving": 2822,
      "updated": 2823,
      "recommend": 2824,
      "multi": 2825,
      "om": 2826,
      "option": 2827,
      "priority": 2828,
      "Mindfulness": 2829,
      "anticip": 2830,
      "asing": 2831,
      "answers": 2832,
      "discourage": 2833,
      "eating": 2834,
      "plans": 2835,
      "oration": 2836,
      "adjust": 2837,
      "comparis": 2838,
      "intention": 2839,
      "ins": 2840,
      "combination": 2841,
      "sli": 2842,
      "cher": 2843,
      "drowning": 2844,
      "alcohol": 2845,
      "stor": 2846,
      "asking": 2847,
      "fle": 2848,
      "satis": 2849,
      "Sar": 2850,
      "Sara": 2851,
      "Their": 2852,
      "uncover": 2853,
      "pass": 2854,
      "thrive": 2855,
      "exist": 2856,
      "exactly": 2857,
      "cherish": 2858,
      "ig": 2859,
      "ext": 2860,
      "zone": 2861,
      "occ": 2862,
      "bear": 2863,
      "shape": 2864,
      "paint": 2865,
      "guard": 2866,
      "maj": 2867,
      "prep": 2868,
      "accepting": 2869,
      "drained": 2870,
      "empower": 2871,
      "Conf": 2872,
      "craving": 2873,
      "shown": 2874,
      "major": 2875,
      "wall": 2876,
      "Sarah": 2877,
      "substances": 2878,
      "inspire": 2879,
      "aches": 2880,
      "due": 2881,
      "fatigue": 2882,
      "relieved": 2883,
      "walking": 2884,
      "grounding": 2885,
      "ings": 2886,
      "boss": 2887,
      "ber": 2888,
      "reactions": 2889,
      "exploration": 2890,
      "fulfilled": 2891,
      "itself": 2892,
      "sures": 2893,
      "sts": 2894,
      "wanting": 2895,
      "rediscovering": 2896,
      "condi": 2897,
      "professionals": 2898,
      "slowly": 2899,
      "ored": 2900,
      "Pain": 2901,
      "timid": 2902,
      "greater": 2903,
      "recharge": 2904,
      "appe": 2905,
      "lessons": 2906,
      "intimid": 2907,
      "activity": 2908,
      "choose": 2909,
      "At": 2910,
      "honored": 2911,
      "cate": 2912,
      "alking": 2913,
      "det": 2914,
      "ained": 2915,
      "reminds": 2916,
      "ners": 2917,
      "cr": 2918,
      "capt": 2919,
      "positivity": 2920,
      "almost": 2921,
      "raming": 2922,
      "facilitate": 2923,
      "persist": 2924,
      "pick": 2925,
      "write": 2926,
      "Stay": 2927,
      "regretful": 2928,
      "mat": 2929,
      "account": 2930,
      "disgusted": 2931,
      "strategy": 2932,
      "disappointing": 2933,
      "reinfor": 2934,
      "depressed": 2935,
      "suffocating": 2936,
      "discouragement": 2937,
      "turning": 2938,
      "doors": 2939,
      "ronic": 2940,
      "tremend": 2941,
      "Painting": 2942,
      "ieties": 2943,
      "isolating": 2944,
      "Dep": 2945,
      "meantime": 2946,
      "anxieties": 2947,
      "middle": 2948,
      "reclaiming": 2949,
      "stories": 2950,
      "validate": 2951,
      "wake": 2952,
      "disagreement": 2953,
      "brid": 2954,
      "themselves": 2955,
      "improvement": 2956,
      "inadequate": 2957,
      "Allow": 2958,
      "intimidating": 2959,
      "intim": 2960,
      "entment": 2961,
      "sust": 2962,
      "personally": 2963,
      "exhaus": 2964,
      "classes": 2965,
      "org": 2966,
      "exhaustion": 2967,
      "lingering": 2968,
      "gradual": 2969,
      "specializes": 2970,
      "workplace": 2971,
      "race": 2972,
      "ressing": 2973,
      "Conflict": 2974,
      "morning": 2975,
      "experiment": 2976,
      "Talking": 2977,
      "writ": 2978,
      "withdraw": 2979,
      "empathize": 2980,
      "business": 2981,
      "troub": 2982,
      "Open": 2983,
      "fit": 2984,
      "upon": 2985,
      "difficulties": 2986,
      "quickly": 2987,
      "lan": 2988,
      "openness": 2989,
      "blaming": 2990,
      "communities": 2991,
      "fun": 2992,
      "organ": 2993,
      "escalate": 2994,
      "superi": 2995,
      "gets": 2996,
      "succeed": 2997,
      "shop": 2998,
      "identifying": 2999,
      "management": 3000,
      "require": 3001,
      "superiors": 3002,
      "manifest": 3003,
      "Depression": 3004,
      "influenced": 3005,
      "dwell": 3006,
      "terri": 3007,
      "irst": 3008,
      "technique": 3009,
      "promise": 3010,
      "ses": 3011,
      "ash": 3012,
      "approaching": 3013,
      "ampli": 3014,
      "dedicating": 3015,
      "sustain": 3016,
      "conflicting": 3017,
      "fact": 3018,
      "ither": 3019,
      "outlook": 3020,
      "influences": 3021,
      "distraction": 3022,
      "gap": 3023,
      "concentrate": 3024,
      "multiple": 3025,
      "First": 3026,
      "arguing": 3027,
      "directly": 3028,
      "lay": 3029,
      "fies": 3030,
      "usually": 3031,
      "regularly": 3032,
      "stop": 3033,
      "inves": 3034,
      "abs": 3035,
      "hadn": 3036,
      "Un": 3037,
      "room": 3038,
      "placing": 3039,
      "Even": 3040,
      "eld": 3041,
      "limit": 3042,
      "terms": 3043,
      "attempted": 3044,
      "sely": 3045,
      "recall": 3046,
      "regardless": 3047,
      "choice": 3048,
      "researching": 3049,
      "structured": 3050,
      "nourish": 3051,
      "harmony": 3052,
      "shocked": 3053,
      "recur": 3054,
      "tude": 3055,
      "order": 3056,
      "fell": 3057,
      "benefits": 3058,
      "discouraging": 3059,
      "against": 3060,
      ".\"": 3061,
      "establishing": 3062,
      "showing": 3063,
      "transformation": 3064,
      "late": 3065,
      "workshop": 3066,
      "biggest": 3067,
      "edom": 3068,
      "loy": 3069,
      "lim": 3070,
      "negativity": 3071,
      "deepen": 3072,
      "bridge": 3073,
      "freedom": 3074,
      "emer": 3075,
      "atti": 3076,
      "encouraging": 3077,
      "langu": 3078,
      "reat": 3079,
      "consume": 3080,
      "tremendous": 3081,
      "ager": 3082,
      "absence": 3083,
      "sity": 3084,
      "ross": 3085,
      "atively": 3086,
      "anging": 3087,
      "mentally": 3088,
      "sources": 3089,
      "fest": 3090,
      "recurring": 3091,
      "acking": 3092,
      "advent": 3093,
      "reframing": 3094,
      "repe": 3095,
      "bot": 3096,
      "ph": 3097,
      "expected": 3098,
      "shifting": 3099,
      "fold": 3100,
      "storm": 3101,
      "frequ": 3102,
      "intensity": 3103,
      "strained": 3104,
      "fight": 3105,
      "security": 3106,
      "rame": 3107,
      "inspiration": 3108,
      "Mo": 3109,
      "partners": 3110,
      "received": 3111,
      "story": 3112,
      "unfold": 3113,
      "empowered": 3114,
      "sphere": 3115,
      "artic": 3116,
      "ences": 3117,
      "attitude": 3118,
      "sing": 3119,
      "attr": 3120,
      "calming": 3121,
      "prepare": 3122,
      "atmo": 3123,
      "atmosphere": 3124,
      "headaches": 3125,
      "either": 3126,
      "suring": 3127,
      "thrill": 3128,
      "drifting": 3129,
      "until": 3130,
      "based": 3131,
      "poss": 3132,
      "separ": 3133,
      "ature": 3134,
      "everyday": 3135,
      "reminders": 3136,
      "uncommon": 3137,
      "mechanism": 3138,
      "fearing": 3139,
      "leap": 3140,
      "clearly": 3141,
      "ignite": 3142,
      "resur": 3143,
      "thiness": 3144,
      "lifest": 3145,
      "Breaking": 3146,
      "sought": 3147,
      "investing": 3148,
      "worthiness": 3149,
      "hur": 3150,
      "join": 3151,
      "top": 3152,
      "forming": 3153,
      "shell": 3154,
      "enses": 3155,
      "wrap": 3156,
      "chronic": 3157,
      "grip": 3158,
      "least": 3159,
      "differences": 3160,
      "responsible": 3161,
      "possess": 3162,
      "demanding": 3163,
      "flow": 3164,
      "liber": 3165,
      "sequ": 3166,
      "ount": 3167,
      "lifestyle": 3168,
      "thoughtful": 3169,
      "benefit": 3170,
      "overshadow": 3171,
      "involving": 3172,
      "ancing": 3173,
      "ude": 3174,
      "vast": 3175,
      "oney": 3176,
      "alized": 3177,
      "party": 3178,
      "Don": 3179,
      "intern": 3180,
      "meant": 3181,
      "parties": 3182,
      "believing": 3183,
      "consistently": 3184,
      "Celebrating": 3185,
      "outcomes": 3186,
      "sition": 3187,
      "misunderstood": 3188,
      "organi": 3189,
      "systems": 3190,
      "internal": 3191,
      "occur": 3192,
      "standard": 3193,
      "mainly": 3194,
      "Pl": 3195,
      "colors": 3196,
      "sit": 3197,
      "tling": 3198,
      "inadequacy": 3199,
      "soon": 3200,
      "mine": 3201,
      "confrontational": 3202,
      "cravings": 3203,
      "Li": 3204,
      "hurts": 3205,
      "secure": 3206,
      "Starting": 3207,
      "workshops": 3208,
      "expressed": 3209,
      "worst": 3210,
      "inspired": 3211,
      "Nature": 3212,
      "ened": 3213,
      "Embrace": 3214,
      "instru": 3215,
      "human": 3216,
      "greatly": 3217,
      "Plus": 3218,
      "heated": 3219,
      "suggesting": 3220,
      "Ano": 3221,
      "places": 3222,
      "Alongside": 3223,
      "Another": 3224,
      "equi": 3225,
      "overnight": 3226,
      "decided": 3227,
      "message": 3228,
      "validated": 3229,
      "distressing": 3230,
      "pet": 3231,
      "hanging": 3232,
      "came": 3233,
      "famili": 3234,
      "consequ": 3235,
      "alize": 3236,
      "vulnerabilities": 3237,
      "loop": 3238,
      "comparison": 3239,
      "successes": 3240,
      "Lon": 3241,
      "struggled": 3242,
      "failing": 3243,
      "shouldn": 3244,
      "hasn": 3245,
      "scen": 3246,
      "attempts": 3247,
      "identity": 3248,
      "planning": 3249,
      "Loneliness": 3250,
      "lifting": 3251,
      "medical": 3252,
      "research": 3253,
      "ents": 3254,
      "telling": 3255,
      "accus": 3256,
      "Reach": 3257,
      "promote": 3258,
      "eventually": 3259,
      "played": 3260,
      "initiate": 3261,
      "resul": 3262,
      "Any": 3263,
      "integr": 3264,
      "osity": 3265,
      "tends": 3266,
      "money": 3267,
      "recep": 3268,
      "opened": 3269,
      "soo": 3270,
      "consequences": 3271,
      "appear": 3272,
      "mostly": 3273,
      "grounded": 3274,
      "Rebuilding": 3275,
      "topics": 3276,
      "held": 3277,
      "fault": 3278,
      "dest": 3279,
      "encounter": 3280,
      "attack": 3281,
      "appreciated": 3282,
      "curiosity": 3283,
      "optimism": 3284,
      "intro": 3285,
      "enjoyed": 3286,
      "running": 3287,
      "seriously": 3288,
      "discovering": 3289,
      "pict": 3290,
      "waiting": 3291,
      "blo": 3292,
      "lie": 3293,
      "prove": 3294,
      "judge": 3295,
      "evol": 3296,
      "processing": 3297,
      "cat": 3298,
      "ache": 3299,
      "fering": 3300,
      "kid": 3301,
      "young": 3302,
      "relying": 3303,
      "ini": 3304,
      "dwelling": 3305,
      "sensi": 3306,
      "moil": 3307,
      "disconnect": 3308,
      "turmoil": 3309,
      "compromise": 3310,
      "tearing": 3311,
      "unrealistic": 3312,
      "treatment": 3313,
      "receptive": 3314,
      "familiar": 3315,
      "ced": 3316,
      "tiveness": 3317,
      "arely": 3318,
      "healthcare": 3319,
      "insightful": 3320,
      "rooted": 3321,
      "leading": 3322,
      "fying": 3323,
      "creates": 3324,
      "triggering": 3325,
      "grasp": 3326,
      "egg": 3327,
      "paths": 3328,
      "devast": 3329,
      "entirely": 3330,
      "achieved": 3331,
      "shells": 3332,
      "heartfelt": 3333,
      "satisfac": 3334,
      "eggshells": 3335,
      "unwind": 3336,
      "respectful": 3337,
      "influence": 3338,
      "selfish": 3339,
      "plays": 3340,
      "pieces": 3341,
      "ied": 3342,
      "wants": 3343,
      "pul": 3344,
      "Work": 3345,
      "image": 3346,
      "reason": 3347,
      "passionate": 3348,
      "immer": 3349,
      "call": 3350,
      "believed": 3351,
      "eless": 3352,
      "version": 3353,
      "enjoying": 3354,
      "immers": 3355,
      "satisfaction": 3356,
      "ta": 3357,
      "reframe": 3358,
      "Oh": 3359,
      "forever": 3360,
      "dedicate": 3361,
      "standards": 3362,
      "critical": 3363,
      "immerse": 3364,
      "changed": 3365,
      "individually": 3366,
      "measure": 3367,
      "ari": 3368,
      "meetings": 3369,
      "performance": 3370,
      "pil": 3371,
      "identified": 3372,
      "transition": 3373,
      "evident": 3374,
      "occup": 3375,
      "song": 3376,
      "andon": 3377,
      "abandon": 3378,
      "uplifting": 3379,
      "increase": 3380,
      "case": 3381,
      "ront": 3382,
      "dict": 3383,
      "hopes": 3384,
      "logi": 3385,
      "closest": 3386,
      "happens": 3387,
      "initiating": 3388,
      "therapists": 3389,
      "club": 3390,
      "quiet": 3391,
      "risks": 3392,
      "pressures": 3393,
      "endless": 3394,
      "ideal": 3395,
      "bu": 3396,
      "previ": 3397,
      "beginning": 3398,
      "Conne": 3399,
      "dismissed": 3400,
      "tap": 3401,
      "reward": 3402,
      "ood": 3403,
      "wise": 3404,
      "began": 3405,
      "thrilled": 3406,
      "concl": 3407,
      "force": 3408,
      "intimacy": 3409,
      "lity": 3410,
      "vas": 3411,
      "wouldn": 3412,
      "obser": 3413,
      "unheard": 3414,
      "developed": 3415,
      "temporarily": 3416,
      "canvas": 3417,
      "honoring": 3418,
      "freely": 3419,
      "approval": 3420,
      "vicious": 3421,
      "couple": 3422,
      "roman": 3423,
      "motions": 3424,
      "shut": 3425,
      "limitations": 3426,
      "ird": 3427,
      "teach": 3428,
      "perceived": 3429,
      "cleare": 3430,
      "travel": 3431,
      "scenari": 3432,
      "ctivity": 3433,
      "pressing": 3434,
      "eager": 3435,
      "vely": 3436,
      "Ul": 3437,
      "Ultimately": 3438,
      "advo": 3439,
      "musici": 3440,
      "sibling": 3441,
      "wait": 3442,
      "acity": 3443,
      "signs": 3444,
      "expand": 3445,
      "milestone": 3446,
      "mother": 3447,
      "capacity": 3448,
      "De": 3449,
      "covers": 3450,
      "weeks": 3451,
      "integrate": 3452,
      "osed": 3453,
      "dear": 3454,
      "ghter": 3455,
      "sensitive": 3456,
      "atever": 3457,
      "immen": 3458,
      "productivity": 3459,
      "publish": 3460,
      "Moving": 3461,
      "clearer": 3462,
      "immensely": 3463,
      "compan": 3464,
      "hopeless": 3465,
      "Connecting": 3466,
      "incapable": 3467,
      "cheated": 3468,
      "inform": 3469,
      "supports": 3470,
      "check": 3471,
      "suddenly": 3472,
      "kep": 3473,
      "assu": 3474,
      "particip": 3475,
      "independence": 3476,
      "demon": 3477,
      "brain": 3478,
      "hinder": 3479,
      "whatever": 3480,
      "books": 3481,
      "problem": 3482,
      "letter": 3483,
      "mentor": 3484,
      "fla": 3485,
      "kes": 3486,
      "tled": 3487,
      "reh": 3488,
      "detail": 3489,
      "severance": 3490,
      "compreh": 3491,
      "Feeling": 3492,
      "companion": 3493,
      "replace": 3494,
      "listener": 3495,
      "eyes": 3496,
      "Each": 3497,
      "barrier": 3498,
      "failed": 3499,
      "results": 3500,
      "Comp": 3501,
      "phone": 3502,
      "sac": 3503,
      "across": 3504,
      "difficulty": 3505,
      "revis": 3506,
      "sil": 3507,
      "Through": 3508,
      "perseverance": 3509,
      "plant": 3510,
      "excel": 3511,
      "tranqui": 3512,
      "torn": 3513,
      "embarking": 3514,
      "surprise": 3515,
      "Su": 3516,
      "cheering": 3517,
      "complete": 3518,
      "numbness": 3519,
      "romantic": 3520,
      "piling": 3521,
      "reci": 3522,
      "amount": 3523,
      "mistake": 3524,
      "acknowledged": 3525,
      "soothing": 3526,
      "front": 3527,
      "liberating": 3528,
      "une": 3529,
      "pay": 3530,
      "somehow": 3531,
      "previous": 3532,
      "apo": 3533,
      "dence": 3534,
      "stumb": 3535,
      "kids": 3536,
      "shap": 3537,
      "sustainable": 3538,
      "ters": 3539,
      "recognition": 3540,
      "flaw": 3541,
      "doctor": 3542,
      "stre": 3543,
      "tight": 3544,
      "stressful": 3545,
      "increased": 3546,
      "lighter": 3547,
      "laugh": 3548,
      "igno": 3549,
      "heartbreaking": 3550,
      "trouble": 3551,
      "erb": 3552,
      "sleeping": 3553,
      "acerb": 3554,
      "exacerb": 3555,
      "mediator": 3556,
      "huge": 3557,
      "dam": 3558,
      "knew": 3559,
      "food": 3560,
      "emerge": 3561,
      "appreciation": 3562,
      "sen": 3563,
      "tack": 3564,
      "uncomfortable": 3565,
      "capabilities": 3566,
      "knowledge": 3567,
      "initially": 3568,
      "rush": 3569,
      "aced": 3570,
      "Exc": 3571,
      "park": 3572,
      "height": 3573,
      "stands": 3574,
      "calmly": 3575,
      "slipping": 3576,
      "bonds": 3577,
      "sacri": 3578,
      "paraly": 3579,
      "reser": 3580,
      "gaining": 3581,
      "expenses": 3582,
      "immediate": 3583,
      "auth": 3584,
      "information": 3585,
      "development": 3586,
      "bud": 3587,
      "sides": 3588,
      "trusting": 3589,
      "schedul": 3590,
      "tranquility": 3591,
      "reducing": 3592,
      "fair": 3593,
      "Pri": 3594,
      "ible": 3595,
      "condition": 3596,
      "accountable": 3597,
      "worked": 3598,
      "reaction": 3599,
      "escalated": 3600,
      "anytime": 3601,
      "task": 3602,
      "evidence": 3603,
      "fortun": 3604,
      "ove": 3605,
      "outdoors": 3606,
      "despair": 3607,
      "addictive": 3608,
      "ams": 3609,
      "complexities": 3610,
      "cataly": 3611,
      "ende": 3612,
      "vey": 3613,
      "regaining": 3614,
      "Prior": 3615,
      "endeav": 3616,
      "Refle": 3617,
      "significantly": 3618,
      "watch": 3619,
      "convey": 3620,
      "increasing": 3621,
      "initial": 3622,
      "design": 3623,
      "arises": 3624,
      "families": 3625,
      "Prioriti": 3626,
      "anticipate": 3627,
      "strengthening": 3628,
      "points": 3629,
      "authentically": 3630,
      "extent": 3631,
      "languages": 3632,
      "Since": 3633,
      "adap": 3634,
      "ament": 3635,
      "associ": 3636,
      "fer": 3637,
      "pave": 3638,
      "interrup": 3639,
      "helpless": 3640,
      "mindful": 3641,
      "concerned": 3642,
      "attract": 3643,
      "ba": 3644,
      "typic": 3645,
      "breathe": 3646,
      "engaged": 3647,
      "ned": 3648,
      "pret": 3649,
      "turns": 3650,
      "lored": 3651,
      "laughter": 3652,
      "Over": 3653,
      "intri": 3654,
      "alizing": 3655,
      "exh": 3656,
      "spirits": 3657,
      "achievement": 3658,
      "Know": 3659,
      "mixed": 3660,
      "nervousness": 3661,
      "Firstly": 3662,
      "appeti": 3663,
      "asc": 3664,
      "adult": 3665,
      "grand": 3666,
      "appetite": 3667,
      "scares": 3668,
      "receiving": 3669,
      "assertive": 3670,
      "picture": 3671,
      "caring": 3672,
      "rock": 3673,
      "invested": 3674,
      "strive": 3675,
      "warm": 3676,
      "Until": 3677,
      "distracting": 3678,
      "colleague": 3679,
      "testament": 3680,
      "sens": 3681,
      "drawn": 3682,
      "Prioritizing": 3683,
      "failures": 3684,
      "bearable": 3685,
      "ilored": 3686,
      "tailored": 3687,
      "fasc": 3688,
      "rt": 3689,
      "field": 3690,
      "lifted": 3691,
      "occupied": 3692,
      "artists": 3693,
      "priorities": 3694,
      "ori": 3695,
      "Incorpor": 3696,
      "immersing": 3697,
      "forms": 3698,
      "looked": 3699,
      "counter": 3700,
      "Rel": 3701,
      "aid": 3702,
      "imper": 3703,
      "ery": 3704,
      "confronting": 3705,
      "Incorporating": 3706,
      "extra": 3707,
      "unbearable": 3708,
      "believes": 3709,
      "vations": 3710,
      "relate": 3711,
      "company": 3712,
      "barriers": 3713,
      "shaped": 3714,
      "tackle": 3715,
      "sic": 3716,
      "assertively": 3717,
      "Des": 3718,
      "resentment": 3719,
      "assertiveness": 3720,
      "sacrific": 3721,
      "bad": 3722,
      "reminded": 3723,
      "imperfe": 3724,
      "frequent": 3725,
      "typically": 3726,
      "tan": 3727,
      "attain": 3728,
      "authenticity": 3729,
      "bigger": 3730,
      "breakdown": 3731,
      "simpl": 3732,
      "projects": 3733,
      "eye": 3734,
      "matic": 3735,
      "writer": 3736,
      "younger": 3737,
      "atives": 3738,
      "Whether": 3739,
      "broke": 3740,
      "walls": 3741,
      "momentarily": 3742,
      "offe": 3743,
      "third": 3744,
      "Reconnecting": 3745,
      "artwork": 3746,
      "stressors": 3747,
      "milestones": 3748,
      "capturing": 3749,
      "reignite": 3750,
      "tied": 3751,
      "intentionally": 3752,
      "air": 3753,
      "mas": 3754,
      "proper": 3755,
      "siblings": 3756,
      "lingers": 3757,
      "Before": 3758,
      "Many": 3759,
      "picking": 3760,
      "fellow": 3761,
      "vation": 3762,
      "ravel": 3763,
      "house": 3764,
      "oga": 3765,
      "accepted": 3766,
      "emphasizing": 3767,
      "Despite": 3768,
      "told": 3769,
      "driving": 3770,
      "stro": 3771,
      "recognized": 3772,
      "Expressing": 3773,
      "equ": 3774,
      "cli": 3775,
      "beginner": 3776,
      "influencing": 3777,
      "immediately": 3778,
      "fascin": 3779,
      "employ": 3780,
      "improved": 3781,
      "reinforce": 3782,
      "shed": 3783,
      "xic": 3784,
      "dies": 3785,
      "catalyst": 3786,
      "repair": 3787,
      "escalating": 3788,
      "perfectly": 3789,
      "piece": 3790,
      "cam": 3791,
      "resistance": 3792,
      "father": 3793,
      "offers": 3794,
      "entire": 3795,
      "unte": 3796,
      "overwhelm": 3797,
      "fills": 3798,
      "guessing": 3799,
      "dimin": 3800,
      "gatherings": 3801,
      "simplest": 3802,
      "diminish": 3803,
      "ensuring": 3804,
      "adding": 3805,
      "Reflecting": 3806,
      "land": 3807,
      "reju": 3808,
      "fig": 3809,
      "rowing": 3810,
      "jugg": 3811,
      "rejuven": 3812,
      "contemp": 3813,
      "adventure": 3814,
      "resto": 3815,
      "dig": 3816,
      "shining": 3817,
      "confide": 3818,
      "earning": 3819,
      "tious": 3820,
      "exper": 3821,
      "Di": 3822,
      "yles": 3823,
      "toxic": 3824,
      "realizing": 3825,
      "attainable": 3826,
      "highlight": 3827,
      "gently": 3828,
      "hill": 3829,
      "indul": 3830,
      "striving": 3831,
      "apologi": 3832,
      "yoga": 3833,
      "changing": 3834,
      "significance": 3835,
      "risk": 3836,
      "capture": 3837,
      "gathering": 3838,
      "criticized": 3839,
      "several": 3840,
      "Please": 3841,
      "reservations": 3842,
      "surface": 3843,
      "independent": 3844,
      "breaths": 3845,
      "structure": 3846,
      "examples": 3847,
      "introdu": 3848,
      "altogether": 3849,
      "waves": 3850,
      "During": 3851,
      "ulate": 3852,
      "Great": 3853,
      "cath": 3854,
      "respite": 3855,
      "pha": 3856,
      "Knowing": 3857,
      "phase": 3858,
      "redirect": 3859,
      "core": 3860,
      "incidents": 3861,
      "hid": 3862,
      "favor": 3863,
      "agging": 3864,
      "interven": 3865,
      "position": 3866,
      "losses": 3867,
      "artist": 3868,
      "warming": 3869,
      "creeps": 3870,
      "emphasize": 3871,
      "Relationship": 3872,
      "diet": 3873,
      "Always": 3874,
      "Learning": 3875,
      "Pr": 3876,
      "heartwarming": 3877,
      "noticing": 3878,
      "author": 3879,
      "beat": 3880,
      "separate": 3881,
      "styles": 3882,
      "plants": 3883,
      "Excellent": 3884,
      "adapt": 3885,
      "kinder": 3886,
      "missed": 3887,
      "depths": 3888,
      "early": 3889,
      "treating": 3890,
      "block": 3891,
      "ked": 3892,
      "ably": 3893,
      "nt": 3894,
      "icate": 3895,
      "continuous": 3896,
      "gave": 3897,
      "reacting": 3898,
      "drive": 3899,
      "preventing": 3900,
      "listens": 3901,
      "Has": 3902,
      "themes": 3903,
      "whom": 3904,
      "desper": 3905,
      "songs": 3906,
      "disrup": 3907,
      "pour": 3908,
      "effects": 3909,
      "comprehend": 3910,
      "contempl": 3911,
      "tili": 3912,
      "restore": 3913,
      "Relationships": 3914,
      "ater": 3915,
      "uphill": 3916,
      "ressive": 3917,
      "saw": 3918,
      "corner": 3919,
      "wave": 3920,
      "ars": 3921,
      "victory": 3922,
      "scenarios": 3923,
      "eness": 3924,
      "ety": 3925,
      "ying": 3926,
      "vibr": 3927,
      "harm": 3928,
      "Deep": 3929,
      "itable": 3930,
      "unravel": 3931,
      "Seeing": 3932,
      "equipped": 3933,
      "unch": 3934,
      "esi": 3935,
      "sea": 3936,
      "ket": 3937,
      "hearted": 3938,
      "batt": 3939,
      "timate": 3940,
      "leaning": 3941,
      "esides": 3942,
      "wed": 3943,
      "darkest": 3944,
      "basic": 3945,
      "continuing": 3946,
      "talents": 3947,
      "paintbrush": 3948,
      "prepared": 3949,
      "impactful": 3950,
      "gener": 3951,
      "circle": 3952,
      "impacts": 3953,
      "passing": 3954,
      "conclude": 3955,
      "cation": 3956,
      "weighs": 3957,
      "scheduling": 3958,
      "differing": 3959,
      "ick": 3960,
      "etal": 3961,
      "drawing": 3962,
      "Ho": 3963,
      "exercising": 3964,
      "recommendations": 3965,
      "rewarding": 3966,
      "mag": 3967,
      "news": 3968,
      "promising": 3969,
      "brief": 3970,
      "calmness": 3971,
      "societal": 3972,
      "usive": 3973,
      "evolve": 3974,
      "discomfort": 3975,
      "passed": 3976,
      "edu": 3977,
      "devastating": 3978,
      "indust": 3979,
      "represent": 3980,
      "resist": 3981,
      "Hope": 3982,
      "cult": 3983,
      "initiative": 3984,
      "flaws": 3985,
      "forgot": 3986,
      "sounding": 3987,
      "experimenting": 3988,
      "wedding": 3989,
      "Fo": 3990,
      "everywhere": 3991,
      "herent": 3992,
      "invis": 3993,
      "traumas": 3994,
      "enjoyable": 3995,
      "lessly": 3996,
      "lands": 3997,
      "figure": 3998,
      "public": 3999,
      "imagined": 4000,
      "countless": 4001,
      "minds": 4002,
      "prim": 4003,
      "favorite": 4004,
      "vibrant": 4005,
      "inherent": 4006,
      "contentment": 4007,
      "Stress": 4008,
      "advocate": 4009,
      "lifel": 4010,
      "seep": 4011,
      "lu": 4012,
      "unhappiness": 4013,
      "Est": 4014,
      "handling": 4015,
      "respected": 4016,
      "Establish": 4017,
      "orig": 4018,
      "invisible": 4019,
      "Making": 4020,
      "relap": 4021,
      "carried": 4022,
      "follows": 4023,
      "sured": 4024,
      "rained": 4025,
      "ingrained": 4026,
      "plate": 4027,
      "contemplating": 4028,
      "compon": 4029,
      "flo": 4030,
      "irr": 4031,
      "Focus": 4032,
      "preoccupied": 4033,
      "planned": 4034,
      "watching": 4035,
      "stopped": 4036,
      "gnitive": 4037,
      "intrigu": 4038,
      "cathartic": 4039,
      "Establishing": 4040,
      "promotion": 4041,
      "recipro": 4042,
      "fund": 4043,
      "volunte": 4044,
      "predict": 4045,
      "confusing": 4046,
      "spiral": 4047,
      "subject": 4048,
      "Trusting": 4049,
      "destination": 4050,
      "unhealthy": 4051,
      "atory": 4052,
      "counts": 4053,
      "cow": 4054,
      "cooking": 4055,
      "unset": 4056,
      "desired": 4057,
      "hurting": 4058,
      "cowork": 4059,
      "Musi": 4060,
      "Paren": 4061,
      "cking": 4062,
      "unease": 4063,
      "Music": 4064,
      "unnecessary": 4065,
      "witnessing": 4066,
      "roots": 4067,
      "oneself": 4068,
      "routines": 4069,
      "crave": 4070,
      "amplify": 4071,
      "comments": 4072,
      "nobody": 4073,
      "successfully": 4074,
      "ishing": 4075,
      "meals": 4076,
      "Comparing": 4077,
      "aper": 4078,
      "paintings": 4079,
      "eleg": 4080,
      "sal": 4081,
      "stable": 4082,
      "ripp": 4083,
      "aught": 4084,
      "voke": 4085,
      "alternatives": 4086,
      "budget": 4087,
      "Art": 4088,
      "Reje": 4089,
      "Everything": 4090,
      "HR": 4091,
      "nights": 4092,
      "stick": 4093,
      "nut": 4094,
      "argue": 4095,
      "added": 4096,
      "demonstr": 4097,
      "paper": 4098,
      "taught": 4099,
      "recon": 4100,
      "near": 4101,
      "sacrificing": 4102,
      "stin": 4103,
      "ching": 4104,
      "isolate": 4105,
      "consciously": 4106,
      "analy": 4107,
      "paralyzing": 4108,
      "grapp": 4109,
      "flourish": 4110,
      "fighting": 4111,
      "Active": 4112,
      "wand": 4113,
      "sorrow": 4114,
      "Pe": 4115,
      "oth": 4116,
      "communicated": 4117,
      "crumb": 4118,
      "picked": 4119,
      "?\"": 4120,
      "delicate": 4121,
      "tests": 4122,
      "adjustments": 4123,
      "supplies": 4124,
      "grew": 4125,
      "style": 4126,
      "asion": 4127,
      "hoped": 4128,
      "persistent": 4129,
      "ripple": 4130,
      "empowerment": 4131,
      "nutri": 4132,
      "yearn": 4133,
      "pushed": 4134,
      "Parenting": 4135,
      "ctu": 4136,
      "among": 4137,
      "creeping": 4138,
      "utili": 4139,
      "defe": 4140,
      "Growing": 4141,
      "trained": 4142,
      "garden": 4143,
      "sexuality": 4144,
      "observation": 4145,
      "imperfections": 4146,
      "cently": 4147,
      "rekind": 4148,
      "feren": 4149,
      "resource": 4150,
      "conflicted": 4151,
      "therapies": 4152,
      ",\"": 4153,
      "tun": 4154,
      "fire": 4155,
      "ashing": 4156,
      "published": 4157,
      "brainstorm": 4158,
      "deepest": 4159,
      "truth": 4160,
      "negatively": 4161,
      "responses": 4162,
      "accomplished": 4163,
      "companionship": 4164,
      "appoint": 4165,
      "deleg": 4166,
      "tory": 4167,
      "limits": 4168,
      "conqu": 4169,
      "grandmother": 4170,
      "Letting": 4171,
      "musician": 4172,
      "Hmm": 4173,
      "dist": 4174,
      "associated": 4175,
      "Divorce": 4176,
      "visu": 4177,
      "doctors": 4178,
      "ane": 4179,
      "internalize": 4180,
      "sort": 4181,
      "refer": 4182,
      "accusatory": 4183,
      "ignore": 4184,
      "chas": 4185,
      "three": 4186,
      "ites": 4187,
      "managed": 4188,
      "easily": 4189,
      "door": 4190,
      "designated": 4191,
      "amed": 4192,
      "grace": 4193,
      "dismis": 4194,
      "appreciating": 4195,
      "smi": 4196,
      "pursuit": 4197,
      "encouraged": 4198,
      "criticize": 4199,
      "mour": 4200,
      "exam": 4201,
      "replacing": 4202,
      "ale": 4203,
      "belit": 4204,
      "covering": 4205,
      "overshadowed": 4206,
      "gs": 4207,
      "deserves": 4208,
      "reconci": 4209,
      "Cultiv": 4210,
      "allo": 4211,
      "dom": 4212,
      "milli": 4213,
      "instance": 4214,
      "guided": 4215,
      "acts": 4216,
      "fortunate": 4217,
      "worthless": 4218,
      "instrumental": 4219,
      "kept": 4220,
      "bas": 4221,
      "dreamed": 4222,
      "drin": 4223,
      "personalized": 4224,
      "veloping": 4225,
      "confrontation": 4226,
      "obstacle": 4227,
      "mer": 4228,
      "gible": 4229,
      "choosing": 4230,
      "layers": 4231,
      "hidden": 4232,
      "flood": 4233,
      "rul": 4234,
      "acade": 4235,
      "nowhere": 4236,
      "destru": 4237,
      "Support": 4238,
      "cut": 4239,
      "Cultivating": 4240,
      "single": 4241,
      "million": 4242,
      "barely": 4243,
      "der": 4244,
      "yourselves": 4245,
      "placed": 4246,
      "gained": 4247,
      "centered": 4248,
      "tunnel": 4249,
      "rarely": 4250,
      "Developing": 4251,
      "iscovering": 4252,
      "extre": 4253,
      "contribu": 4254,
      "exces": 4255,
      "safety": 4256,
      "ills": 4257,
      "avenue": 4258,
      "occasion": 4259,
      "parts": 4260,
      "enjoyment": 4261,
      "assess": 4262,
      "shine": 4263,
      "agno": 4264,
      "cles": 4265,
      "Rejection": 4266,
      "academic": 4267,
      "ails": 4268,
      "stumble": 4269,
      "heightened": 4270,
      "substance": 4271,
      "tangible": 4272,
      "earli": 4273,
      "betraying": 4274,
      "exacerbate": 4275,
      "forgive": 4276,
      "camer": 4277,
      "juggling": 4278,
      "Did": 4279,
      "Recovery": 4280,
      "Like": 4281,
      "motivate": 4282,
      "uncertainties": 4283,
      "photograph": 4284,
      "consistency": 4285,
      "blow": 4286,
      "arr": 4287,
      "lend": 4288,
      "Then": 4289,
      "disconnection": 4290,
      "naturally": 4291,
      "Bel": 4292,
      "diagno": 4293,
      "compet": 4294,
      "confiding": 4295,
      "withdrawing": 4296,
      "doable": 4297,
      "frustrations": 4298,
      "Life": 4299,
      "mach": 4300,
      "accident": 4301,
      "deb": 4302,
      "faces": 4303,
      "carve": 4304,
      "Belie": 4305,
      "content": 4306,
      "zones": 4307,
      "cognitive": 4308,
      "timel": 4309,
      "magi": 4310,
      "Hopefully": 4311,
      "sw": 4312,
      "battling": 4313,
      "pes": 4314,
      "whir": 4315,
      "bra": 4316,
      "hearts": 4317,
      "ferences": 4318,
      "evoke": 4319,
      "deli": 4320,
      "rules": 4321,
      "whirl": 4322,
      "ger": 4323,
      "musical": 4324,
      "yearning": 4325,
      "street": 4326,
      "Dre": 4327,
      "meth": 4328,
      "earlier": 4329,
      "invalidated": 4330,
      "upbeat": 4331,
      "pursued": 4332,
      "fuels": 4333,
      "moved": 4334,
      "intertw": 4335,
      "integrating": 4336,
      "method": 4337,
      "hang": 4338,
      "wis": 4339,
      "above": 4340,
      "spent": 4341,
      "equally": 4342,
      "unsettling": 4343,
      "joyful": 4344,
      "brother": 4345,
      "writers": 4346,
      "regrets": 4347,
      "industry": 4348,
      "conquer": 4349,
      "insignificant": 4350,
      "encourages": 4351,
      "repeating": 4352,
      "bravery": 4353,
      "instin": 4354,
      "excl": 4355,
      "bottled": 4356,
      "creatively": 4357,
      "Photograp": 4358,
      "Photography": 4359,
      "zations": 4360,
      "touched": 4361,
      "boosting": 4362,
      "grappling": 4363,
      "lar": 4364,
      "lacking": 4365,
      "miscommunication": 4366,
      "stomach": 4367,
      "attacked": 4368,
      "interventions": 4369,
      "upcoming": 4370,
      "plat": 4371,
      "jective": 4372,
      "specialize": 4373,
      "intentional": 4374,
      "cts": 4375,
      "preser": 4376,
      "addressed": 4377,
      "envisioned": 4378,
      "offered": 4379,
      "compe": 4380,
      "relation": 4381,
      "trip": 4382,
      "articulate": 4383,
      "resurface": 4384,
      "whirlwind": 4385,
      "Gr": 4386,
      "thick": 4387,
      "concre": 4388,
      "seeming": 4389,
      "extrem": 4390,
      "concrete": 4391,
      "redefine": 4392,
      "Social": 4393,
      "wholehearted": 4394,
      "salv": 4395,
      "dismissive": 4396,
      "participate": 4397,
      "partnership": 4398,
      "complic": 4399,
      "Consist": 4400,
      "Go": 4401,
      "lied": 4402,
      "begins": 4403,
      "encountered": 4404,
      "wholeheartedly": 4405,
      "Good": 4406,
      "Jo": 4407,
      "versity": 4408,
      "game": 4409,
      "messages": 4410,
      "income": 4411,
      "bak": 4412,
      "canc": 4413,
      "energi": 4414,
      "increasingly": 4415,
      "People": 4416,
      "rele": 4417,
      "fearful": 4418,
      "damage": 4419,
      "presentation": 4420,
      "pursuits": 4421,
      "attend": 4422,
      "Dreams": 4423,
      "extremely": 4424,
      "evalu": 4425,
      "mentors": 4426,
      "tensions": 4427,
      "interaction": 4428,
      "chasing": 4429,
      "smo": 4430,
      "usual": 4431,
      "accountability": 4432,
      "loyal": 4433,
      "desperately": 4434,
      "lik": 4435,
      "sider": 4436,
      "brushes": 4437,
      "serious": 4438,
      "Exactly": 4439,
      "apologize": 4440,
      "intensified": 4441,
      "timeline": 4442,
      "conv": 4443,
      "sport": 4444,
      "jump": 4445,
      "explaining": 4446,
      "scr": 4447,
      "guarded": 4448,
      "detach": 4449,
      "Af": 4450,
      "udes": 4451,
      "diagnos": 4452,
      "seemingly": 4453,
      "nice": 4454,
      "elements": 4455,
      "preferences": 4456,
      "city": 4457,
      "sively": 4458,
      "cherished": 4459,
      "Besides": 4460,
      "stage": 4461,
      "Remind": 4462,
      "revisiting": 4463,
      "Last": 4464,
      "mar": 4465,
      "assign": 4466,
      "following": 4467,
      "unexpectedly": 4468,
      "nourishing": 4469,
      "adventures": 4470,
      "Friend": 4471,
      "mes": 4472,
      "math": 4473,
      "profoundly": 4474,
      "moun": 4475,
      "fade": 4476,
      "capes": 4477,
      "suggested": 4478,
      "primary": 4479,
      "camera": 4480,
      "haun": 4481,
      "overthinking": 4482,
      "renity": 4483,
      "heartbroken": 4484,
      "month": 4485,
      "serenity": 4486,
      "trivi": 4487,
      "cheat": 4488,
      "luck": 4489,
      "wide": 4490,
      "heartache": 4491,
      "rejections": 4492,
      "traumatic": 4493,
      "warmth": 4494,
      "wins": 4495,
      "overly": 4496,
      "finds": 4497,
      "sensations": 4498,
      "tise": 4499,
      "secre": 4500,
      "fing": 4501,
      "worsen": 4502,
      "crow": 4503,
      "scar": 4504,
      "cred": 4505,
      "perpe": 4506,
      "abandonment": 4507,
      "revisit": 4508,
      "Believe": 4509,
      "warms": 4510,
      "expertise": 4511,
      "credit": 4512,
      "perpetu": 4513,
      "blocks": 4514,
      "eat": 4515,
      "audi": 4516,
      "disappointments": 4517,
      "intensifies": 4518,
      "includes": 4519,
      "criticizing": 4520,
      "From": 4521,
      "unfulfilled": 4522,
      "upside": 4523,
      "pride": 4524,
      "treated": 4525,
      "comparisons": 4526,
      "endeavors": 4527,
      "Consistency": 4528,
      "introduce": 4529,
      "dance": 4530,
      "Wond": 4531,
      "fine": 4532,
      "continued": 4533,
      "instrument": 4534,
      "Going": 4535,
      "trivial": 4536,
      "prene": 4537,
      "crashing": 4538,
      "fad": 4539,
      "professionally": 4540,
      "shortcoming": 4541,
      "fascinated": 4542,
      "infi": 4543,
      "cept": 4544,
      "shortcomings": 4545,
      "strange": 4546,
      "assert": 4547,
      "function": 4548,
      "destructive": 4549,
      "Wonderful": 4550,
      "reprene": 4551,
      "entreprene": 4552,
      "properly": 4553,
      "Facing": 4554,
      "instant": 4555,
      "language": 4556,
      "sn": 4557,
      "tone": 4558,
      "lifelong": 4559,
      "decre": 4560,
      "weet": 4561,
      "grain": 4562,
      "momentum": 4563,
      "landscapes": 4564,
      "salvage": 4565,
      "Tr": 4566,
      "color": 4567,
      "unlo": 4568,
      "context": 4569,
      "relapse": 4570,
      "stone": 4571,
      "extend": 4572,
      "uncondi": 4573,
      "embarrassment": 4574,
      "unconditionally": 4575,
      "unworthy": 4576,
      "sets": 4577,
      "shifts": 4578,
      "intimate": 4579,
      "internalized": 4580,
      "yours": 4581,
      "lig": 4582,
      "fice": 4583,
      "adv": 4584,
      "progr": 4585,
      "wellbeing": 4586,
      "factor": 4587,
      "delity": 4588,
      "include": 4589,
      "ride": 4590,
      "ases": 4591,
      "resistant": 4592,
      "save": 4593,
      "committing": 4594,
      "treatments": 4595,
      "sitting": 4596,
      "competi": 4597,
      "overlooked": 4598,
      "brushed": 4599,
      "abandoned": 4600,
      "necessarily": 4601,
      "accompanying": 4602,
      "amplifies": 4603,
      "tional": 4604,
      "loves": 4605,
      "aftermath": 4606,
      "Also": 4607,
      "smile": 4608,
      "spect": 4609,
      "threat": 4610,
      "hands": 4611,
      "clash": 4612,
      "utch": 4613,
      "valuing": 4614,
      "tin": 4615,
      "tes": 4616,
      "grown": 4617,
      "ounce": 4618,
      "methods": 4619,
      "repeat": 4620,
      "responding": 4621,
      "musicians": 4622,
      "redi": 4623,
      "forgiving": 4624,
      "cancel": 4625,
      "skep": 4626,
      "joined": 4627,
      "validating": 4628,
      "humor": 4629,
      "skeptic": 4630,
      "tori": 4631,
      "odds": 4632,
      "approached": 4633,
      "tempt": 4634,
      "complicated": 4635,
      "strang": 4636,
      "mini": 4637,
      "combat": 4638,
      "endeavor": 4639,
      "Practic": 4640,
      "ilar": 4641,
      "resurfacing": 4642,
      "narr": 4643,
      "ture": 4644,
      "rying": 4645,
      "collaboration": 4646,
      "mall": 4647,
      "ertain": 4648,
      "escalates": 4649,
      "protective": 4650,
      "strokes": 4651,
      "controll": 4652,
      "stir": 4653,
      "commitments": 4654,
      "Lo": 4655,
      "ritu": 4656,
      "chances": 4657,
      "silence": 4658,
      "exhilar": 4659,
      "components": 4660,
      "photo": 4661,
      "sun": 4662,
      "needy": 4663,
      "motivating": 4664,
      "networking": 4665,
      "numer": 4666,
      "decide": 4667,
      "numerous": 4668,
      "hardest": 4669,
      "Hold": 4670,
      "Small": 4671,
      "anch": 4672,
      "ension": 4673,
      "urge": 4674,
      "tutori": 4675,
      "details": 4676,
      "Practicing": 4677,
      "diving": 4678,
      "direc": 4679,
      "knows": 4680,
      "organizations": 4681,
      "ster": 4682,
      "upbringing": 4683,
      "orient": 4684,
      "wisdom": 4685,
      "adversity": 4686,
      "somewhere": 4687,
      "integral": 4688,
      "alright": 4689,
      "instincts": 4690,
      "ultimate": 4691,
      "bakery": 4692,
      "energized": 4693,
      "weren": 4694,
      "morse": 4695,
      "Her": 4696,
      "remorse": 4697,
      "word": 4698,
      "counteract": 4699,
      "revol": 4700,
      "settings": 4701,
      "formed": 4702,
      "teacher": 4703,
      "Other": 4704,
      "solute": 4705,
      "layer": 4706,
      "devastated": 4707,
      "mus": 4708,
      "Recently": 4709,
      "excites": 4710,
      "general": 4711,
      "absolute": 4712,
      "explan": 4713,
      "surprising": 4714,
      "basis": 4715,
      "bility": 4716,
      "careers": 4717,
      "clas": 4718,
      "date": 4719,
      "shaken": 4720,
      "improvements": 4721,
      "beneath": 4722,
      "tradi": 4723,
      "frequently": 4724,
      "contributes": 4725,
      "hopelessness": 4726,
      "rift": 4727,
      "terrifying": 4728,
      "overreacting": 4729,
      "expecting": 4730,
      "limiting": 4731,
      "Spe": 4732,
      "hori": 4733,
      "materi": 4734,
      "bottling": 4735,
      "volunteering": 4736,
      "Pro": 4737,
      "uded": 4738,
      "closeness": 4739,
      "fueling": 4740,
      "ror": 4741,
      "dreamt": 4742,
      "clubs": 4743,
      "tutorials": 4744,
      "pal": 4745,
      "relied": 4746,
      "cultures": 4747,
      "gious": 4748,
      "refresh": 4749,
      "minis": 4750,
      "itch": 4751,
      "unintentionally": 4752,
      "consumes": 4753,
      "Speaking": 4754,
      "measuring": 4755,
      "Vulner": 4756,
      "graines": 4757,
      "Vulnerability": 4758,
      "bitters": 4759,
      "apprehension": 4760,
      "appearance": 4761,
      "bittersweet": 4762,
      "reminis": 4763,
      "visual": 4764,
      "sparked": 4765,
      "contributions": 4766,
      "cially": 4767,
      "joys": 4768,
      "carving": 4769,
      "Child": 4770,
      "zy": 4771,
      "box": 4772,
      "water": 4773,
      "enri": 4774,
      "strike": 4775,
      "holistic": 4776,
      "confir": 4777,
      "lighten": 4778,
      "mixture": 4779,
      "Shif": 4780,
      "periods": 4781,
      "appointment": 4782,
      "alth": 4783,
      "relaxed": 4784,
      "persistence": 4785,
      "adop": 4786,
      "ire": 4787,
      "unpredict": 4788,
      "defini": 4789,
      "Overcoming": 4790,
      "supposed": 4791,
      "looks": 4792,
      "walked": 4793,
      "Bal": 4794,
      "page": 4795,
      "sake": 4796,
      "harsh": 4797,
      "compared": 4798,
      "Everyone": 4799,
      "reinforces": 4800,
      "Shifting": 4801,
      "amb": 4802,
      "kn": 4803,
      "cheer": 4804,
      "Once": 4805,
      "horiz": 4806,
      "waking": 4807,
      "depart": 4808,
      "assure": 4809,
      "delving": 4810,
      "intertwined": 4811,
      "strangers": 4812,
      "pulling": 4813,
      "Lastly": 4814,
      "infidelity": 4815,
      "Betray": 4816,
      "mourn": 4817,
      "tang": 4818,
      "elabor": 4819,
      "ulations": 4820,
      "unattainable": 4821,
      "evening": 4822,
      "financially": 4823,
      "remains": 4824,
      "Certain": 4825,
      "hopefully": 4826,
      "fosters": 4827,
      "glimp": 4828,
      "letters": 4829,
      "bodies": 4830,
      "hesitation": 4831,
      "intrigued": 4832,
      "funda": 4833,
      "defeated": 4834,
      "solving": 4835,
      "reliable": 4836,
      "likely": 4837,
      "knot": 4838,
      "ership": 4839,
      "needing": 4840,
      "pause": 4841,
      "gratulations": 4842,
      "flex": 4843,
      "Red": 4844,
      "migraines": 4845,
      "history": 4846,
      "perceptions": 4847,
      "existing": 4848,
      "tips": 4849,
      "elling": 4850,
      "prevents": 4851,
      "dru": 4852,
      "unnoticed": 4853,
      "pra": 4854,
      "exhilarating": 4855,
      "Childhood": 4856,
      "vide": 4857,
      "unimportant": 4858,
      "cautious": 4859,
      "aligned": 4860,
      "narrative": 4861,
      "En": 4862,
      "indulging": 4863,
      "safer": 4864,
      "actionable": 4865,
      "Betrayal": 4866,
      "elaborate": 4867,
      "yes": 4868,
      "stud": 4869,
      "seated": 4870,
      "cannot": 4871,
      "dismisses": 4872,
      "uition": 4873,
      "oper": 4874,
      "apply": 4875,
      "tiredness": 4876,
      "promised": 4877,
      "views": 4878,
      "pretty": 4879,
      "household": 4880,
      "scars": 4881,
      "cated": 4882,
      "patch": 4883,
      "prolong": 4884,
      "aching": 4885,
      "distor": 4886,
      "Asking": 4887,
      "admitting": 4888,
      "irritable": 4889,
      "smooth": 4890,
      "yi": 4891,
      "ships": 4892,
      "importantly": 4893,
      "observe": 4894,
      "osure": 4895,
      "pure": 4896,
      "inno": 4897,
      "ingredi": 4898,
      "bye": 4899,
      "jeop": 4900,
      "anticipation": 4901,
      "loyalty": 4902,
      "nagging": 4903,
      "powerless": 4904,
      "admired": 4905,
      "center": 4906,
      "introspe": 4907,
      "exhale": 4908,
      "Fin": 4909,
      "Part": 4910,
      "forgetting": 4911,
      "detri": 4912,
      "amends": 4913,
      "circles": 4914,
      "Wishing": 4915,
      "decl": 4916,
      "exact": 4917,
      "fingers": 4918,
      "detrimental": 4919,
      "surance": 4920,
      "burdened": 4921,
      "competent": 4922,
      "Balancing": 4923,
      "Ini": 4924,
      "effortlessly": 4925,
      "ardi": 4926,
      "reassure": 4927,
      "delved": 4928,
      "drift": 4929,
      "muscle": 4930,
      "Gi": 4931,
      "Who": 4932,
      "bills": 4933,
      "liation": 4934,
      "invite": 4935,
      "foods": 4936,
      "pouring": 4937,
      "audience": 4938,
      "slight": 4939,
      "ignored": 4940,
      "rekindle": 4941,
      "agious": 4942,
      "lunch": 4943,
      "contagious": 4944,
      "informed": 4945,
      "stroke": 4946,
      "forgotten": 4947,
      "Pur": 4948,
      "Will": 4949,
      "concerning": 4950,
      "reliance": 4951,
      "oblig": 4952,
      "protecting": 4953,
      "fleeting": 4954,
      "magni": 4955,
      "lens": 4956,
      "swi": 4957,
      "although": 4958,
      "suing": 4959,
      "quit": 4960,
      "bedtime": 4961,
      "behavioral": 4962,
      "excessive": 4963,
      "diagnosis": 4964,
      "judging": 4965,
      "conditional": 4966,
      "Pursuing": 4967,
      "ball": 4968,
      "figu": 4969,
      "relent": 4970,
      "solve": 4971,
      "jeopardi": 4972,
      "Guilt": 4973,
      "auto": 4974,
      "precious": 4975,
      "compromising": 4976,
      "Emp": 4977,
      "sting": 4978,
      "final": 4979,
      "courses": 4980,
      "promotes": 4981,
      "Although": 4982,
      "mel": 4983,
      "tly": 4984,
      "saving": 4985,
      "entrepreneur": 4986,
      "cooper": 4987,
      "hopefulness": 4988,
      "illness": 4989,
      "souls": 4990,
      "fortunately": 4991,
      "mountain": 4992,
      "inary": 4993,
      "aining": 4994,
      "defense": 4995,
      "Health": 4996,
      "restless": 4997,
      "allocate": 4998,
      "shifted": 4999,
      "terrifies": 5000,
      "briefly": 5001,
      "fra": 5002,
      "office": 5003,
      "expectation": 5004,
      "showcase": 5005,
      "minimi": 5006,
      "App": 5007,
      "logy": 5008,
      "anchor": 5009,
      "unde": 5010,
      "tendency": 5011,
      "directing": 5012,
      "origins": 5013,
      "drugs": 5014,
      "ford": 5015,
      "journeys": 5016,
      "spill": 5017,
      "craft": 5018,
      "slip": 5019,
      "expanding": 5020,
      "underes": 5021,
      "lovely": 5022,
      "background": 5023,
      "hindering": 5024,
      "panicked": 5025,
      "BT": 5026,
      "tries": 5027,
      "affection": 5028,
      "coworkers": 5029,
      "bounce": 5030,
      "thood": 5031,
      "afford": 5032,
      "menting": 5033,
      "ears": 5034,
      "viewpoints": 5035,
      "match": 5036,
      "vid": 5037,
      "judgments": 5038,
      "hurdle": 5039,
      "attempt": 5040,
      "talented": 5041,
      "pent": 5042,
      "rise": 5043,
      "enable": 5044,
      "essence": 5045,
      "certainty": 5046,
      "weekend": 5047,
      "limited": 5048,
      "evolving": 5049,
      "participating": 5050,
      "unconditional": 5051,
      "stranger": 5052,
      "Initially": 5053,
      "hits": 5054,
      "atitude": 5055,
      "tells": 5056,
      "wonders": 5057,
      "Gratitude": 5058,
      "gest": 5059,
      "peers": 5060,
      "tribut": 5061,
      "opens": 5062,
      "ome": 5063,
      "sin": 5064,
      "shaping": 5065,
      "bullied": 5066,
      "series": 5067,
      "explanation": 5068,
      "affirmation": 5069,
      "paying": 5070,
      "Holding": 5071,
      "directions": 5072,
      "checking": 5073,
      "origin": 5074,
      "programs": 5075,
      "cipl": 5076,
      "chosen": 5077,
      "serves": 5078,
      "gotten": 5079,
      "temptation": 5080,
      "ader": 5081,
      "Challen": 5082,
      "rituals": 5083,
      "Love": 5084,
      "cul": 5085,
      "pou": 5086,
      "attended": 5087,
      "attentive": 5088,
      "relieve": 5089,
      "uncovering": 5090,
      "poured": 5091,
      "exhi": 5092,
      "resort": 5093,
      "ultane": 5094,
      "lots": 5095,
      "confronted": 5096,
      "aspire": 5097,
      "traveling": 5098,
      "Appro": 5099,
      "CBT": 5100,
      "dread": 5101,
      "figured": 5102,
      "redirecting": 5103,
      "ables": 5104,
      "Congratulations": 5105,
      "pill": 5106,
      "fici": 5107,
      "dragging": 5108,
      "Rese": 5109,
      "ums": 5110,
      "diver": 5111,
      "readiness": 5112,
      "finish": 5113,
      "scenario": 5114,
      "interrupting": 5115,
      "indulge": 5116,
      "Research": 5117,
      "abb": 5118,
      "breakthrough": 5119,
      "honing": 5120,
      "confidently": 5121,
      "accompan": 5122,
      "respectfully": 5123,
      "enhancing": 5124,
      "horizons": 5125,
      "tom": 5126,
      "fianc": 5127,
      "discipl": 5128,
      "clou": 5129,
      "says": 5130,
      "skeptical": 5131,
      "unpredictable": 5132,
      "fiancé": 5133,
      "san": 5134,
      "sim": 5135,
      "indic": 5136,
      "fluctu": 5137,
      "balancing": 5138,
      "shutting": 5139,
      "delegate": 5140,
      "ultaneously": 5141,
      "leg": 5142,
      "motivator": 5143,
      "damp": 5144,
      "promoting": 5145,
      "vivid": 5146,
      "continues": 5147,
      "crowded": 5148,
      "ingredients": 5149,
      "introspection": 5150,
      "ather": 5151,
      "knit": 5152,
      "asleep": 5153,
      "taining": 5154,
      "withdrawn": 5155,
      "Physi": 5156,
      "divor": 5157,
      "Remembering": 5158,
      "intuition": 5159,
      "nearby": 5160,
      "enci": 5161,
      "suitable": 5162,
      "assurance": 5163,
      "ames": 5164,
      "trick": 5165,
      "Focusing": 5166,
      "return": 5167,
      "spiraling": 5168,
      "charged": 5169,
      "fascinating": 5170,
      "fiancée": 5171,
      "dinner": 5172,
      "mir": 5173,
      "deteri": 5174,
      "environments": 5175,
      "interact": 5176,
      "skilled": 5177,
      "Suc": 5178,
      "utilizing": 5179,
      "Tod": 5180,
      "cross": 5181,
      "ean": 5182,
      "swe": 5183,
      "ength": 5184,
      "type": 5185,
      "surge": 5186,
      "rolling": 5187,
      "exists": 5188,
      "troubling": 5189,
      "equip": 5190,
      "climb": 5191,
      "simultaneously": 5192,
      "Today": 5193,
      "spreading": 5194,
      "chains": 5195,
      "older": 5196,
      "coworker": 5197,
      "analyzing": 5198,
      "larger": 5199,
      "Success": 5200,
      "races": 5201,
      "win": 5202,
      "outing": 5203,
      "unfamiliar": 5204,
      "performing": 5205,
      "reevalu": 5206,
      "studi": 5207,
      "speaks": 5208,
      "reconciliation": 5209,
      "refreshing": 5210,
      "Main": 5211,
      "five": 5212,
      "comment": 5213,
      "classm": 5214,
      "suppressing": 5215,
      "board": 5216,
      "linger": 5217,
      "chase": 5218,
      "preparing": 5219,
      "kay": 5220,
      "exposure": 5221,
      "shield": 5222,
      "mediation": 5223,
      "storytelling": 5224,
      "fundamental": 5225,
      "psy": 5226,
      "tar": 5227,
      "shines": 5228,
      "erson": 5229,
      "subjects": 5230,
      "demonstrates": 5231,
      "releasing": 5232,
      "muster": 5233,
      "respecting": 5234,
      "coffe": 5235,
      "seve": 5236,
      "assisting": 5237,
      "accusing": 5238,
      "Dealing": 5239,
      "divorced": 5240,
      "coffee": 5241,
      "belong": 5242,
      "Keeping": 5243,
      "asserting": 5244,
      "teachers": 5245,
      "switch": 5246,
      "lessen": 5247,
      "unfortunate": 5248,
      "fog": 5249,
      "calmer": 5250,
      "constructively": 5251,
      "stret": 5252,
      "Goodbye": 5253,
      "Looking": 5254,
      "ambi": 5255,
      "Challenging": 5256,
      "Trying": 5257,
      "interconnected": 5258,
      "briety": 5259,
      "crutch": 5260,
      "rushing": 5261,
      "Isol": 5262,
      "Person": 5263,
      "reassess": 5264,
      "reve": 5265,
      "coexist": 5266,
      "overlook": 5267,
      "attach": 5268,
      "Okay": 5269,
      "advocating": 5270,
      "mod": 5271,
      "prospect": 5272,
      "herself": 5273,
      "unfolding": 5274,
      "obligations": 5275,
      "Avoid": 5276,
      "Nurt": 5277,
      "lance": 5278,
      "loo": 5279,
      "thriving": 5280,
      "stumbled": 5281,
      "relentless": 5282,
      "classmates": 5283,
      "port": 5284,
      "tives": 5285,
      "drinking": 5286,
      "anim": 5287,
      "deaf": 5288,
      "agn": 5289,
      "manifests": 5290,
      "reasonable": 5291,
      "fli": 5292,
      "lli": 5293,
      "stagn": 5294,
      "chat": 5295,
      "unity": 5296,
      "positives": 5297,
      "thanks": 5298,
      "visit": 5299,
      "minute": 5300,
      "Rediscovering": 5301,
      "automatic": 5302,
      "Researching": 5303,
      "sanctu": 5304,
      "appreciates": 5305,
      "manager": 5306,
      "toring": 5307,
      "sky": 5308,
      "society": 5309,
      "cherishing": 5310,
      "pending": 5311,
      "heat": 5312,
      "concept": 5313,
      "sobriety": 5314,
      "reject": 5315,
      "docu": 5316,
      "called": 5317,
      "Maintaining": 5318,
      "sanctuary": 5319,
      "slots": 5320,
      "atic": 5321,
      "afterward": 5322,
      "pull": 5323,
      "employer": 5324,
      "disrupted": 5325,
      "platforms": 5326,
      "lliant": 5327,
      "dles": 5328,
      "Uncertainty": 5329,
      "convin": 5330,
      "fragi": 5331,
      "dro": 5332,
      "vary": 5333,
      "inf": 5334,
      "atience": 5335,
      "publishing": 5336,
      "cke": 5337,
      "unappreciated": 5338,
      "sible": 5339,
      "radi": 5340,
      "hyper": 5341,
      "individuality": 5342,
      "adjusting": 5343,
      "hurdles": 5344,
      "Nurturing": 5345,
      "bir": 5346,
      "wing": 5347,
      "embraced": 5348,
      "asked": 5349,
      "accur": 5350,
      "disorient": 5351,
      "cling": 5352,
      "firm": 5353,
      "consul": 5354,
      "delight": 5355,
      "photographs": 5356,
      "Ti": 5357,
      "loud": 5358,
      "wat": 5359,
      "stones": 5360,
      "cost": 5361,
      "oping": 5362,
      "burning": 5363,
      "brilliant": 5364,
      "hitting": 5365,
      "reintroduce": 5366,
      "ators": 5367,
      "inviting": 5368,
      "suffer": 5369,
      "lightness": 5370,
      "assump": 5371,
      "confirm": 5372,
      "Coping": 5373,
      "fast": 5374,
      "blank": 5375,
      "nutritious": 5376,
      "severe": 5377,
      "aight": 5378,
      "aby": 5379,
      "straight": 5380,
      "provider": 5381,
      "attacking": 5382,
      "married": 5383,
      "organizing": 5384,
      "definition": 5385,
      "Los": 5386,
      "endured": 5387,
      "tears": 5388,
      "reflects": 5389,
      "examining": 5390,
      "Discovering": 5391,
      "dabb": 5392,
      "mount": 5393,
      "sensation": 5394,
      "Patience": 5395,
      "dancing": 5396,
      "Contin": 5397,
      "subjective": 5398,
      "blind": 5399,
      "roadblocks": 5400,
      "Joining": 5401,
      "True": 5402,
      "resha": 5403,
      "grant": 5404,
      "ownership": 5405,
      "Second": 5406,
      "unfolds": 5407,
      "Comparis": 5408,
      "After": 5409,
      "Imp": 5410,
      "map": 5411,
      "apping": 5412,
      "compli": 5413,
      "jobs": 5414,
      "assumptions": 5415,
      "resolutions": 5416,
      "nerve": 5417,
      "reliant": 5418,
      "relaxing": 5419,
      "promises": 5420,
      "nutrition": 5421,
      "legacy": 5422,
      "Ne": 5423,
      "Spending": 5424,
      "fru": 5425,
      "rut": 5426,
      "repl": 5427,
      "accom": 5428,
      "medication": 5429,
      "demonstrate": 5430,
      "replen": 5431,
      "excus": 5432,
      "surmount": 5433,
      "channeling": 5434,
      "department": 5435,
      "surmountable": 5436,
      "Gard": 5437,
      "cations": 5438,
      "dad": 5439,
      "ump": 5440,
      "sided": 5441,
      "overpow": 5442,
      "priv": 5443,
      "Forgiveness": 5444,
      "fixating": 5445,
      "wandering": 5446,
      "insurmountable": 5447,
      "meal": 5448,
      "semb": 5449,
      "goti": 5450,
      "clarif": 5451,
      "dabbled": 5452,
      "Bound": 5453,
      "ert": 5454,
      "esting": 5455,
      "orating": 5456,
      "symb": 5457,
      "interpret": 5458,
      "surroundings": 5459,
      "closely": 5460,
      "represents": 5461,
      "Gardening": 5462,
      "Tra": 5463,
      "bor": 5464,
      "rumor": 5465,
      "foresee": 5466,
      "organized": 5467,
      "pulled": 5468,
      "baking": 5469,
      "mming": 5470,
      "negoti": 5471,
      "paints": 5472,
      "wracking": 5473,
      "oton": 5474,
      "transport": 5475,
      "captiv": 5476,
      "ignited": 5477,
      "laughing": 5478,
      "Emo": 5479,
      "unp": 5480,
      "impul": 5481,
      "appropri": 5482,
      "monoton": 5483,
      "beginnings": 5484,
      "shuts": 5485,
      "reminiscing": 5486,
      "Certainly": 5487,
      "excuses": 5488,
      "Fantastic": 5489,
      "ial": 5490,
      "ray": 5491,
      "proactively": 5492,
      "imposed": 5493,
      "pointing": 5494,
      "resurfaces": 5495,
      "overpowering": 5496,
      "Bul": 5497,
      "ee": 5498,
      "confidant": 5499,
      "shoulder": 5500,
      "mediate": 5501,
      "analyze": 5502,
      "Secondly": 5503,
      "Simple": 5504,
      "somewhat": 5505,
      "ffered": 5506,
      "readers": 5507,
      "motivational": 5508,
      "avoidance": 5509,
      "decrease": 5510,
      "Boundaries": 5511,
      "abusive": 5512,
      "trails": 5513,
      "evenings": 5514,
      "deepening": 5515,
      "burn": 5516,
      "puts": 5517,
      "burdens": 5518,
      "viewing": 5519,
      "repairing": 5520,
      "Wor": 5521,
      "dul": 5522,
      "later": 5523,
      "acter": 5524,
      "shares": 5525,
      "character": 5526,
      "suffering": 5527,
      "compromises": 5528,
      "Approaching": 5529,
      "Loss": 5530,
      "gut": 5531,
      "worthwhile": 5532,
      "arent": 5533,
      "uniqu": 5534,
      "organization": 5535,
      "occurred": 5536,
      "rumors": 5537,
      "outsider": 5538,
      "triump": 5539,
      "hikes": 5540,
      "assured": 5541,
      "referring": 5542,
      "examine": 5543,
      "fragile": 5544,
      "Bullying": 5545,
      "triumph": 5546,
      "mou": 5547,
      "otic": 5548,
      "novel": 5549,
      "dreaming": 5550,
      "presents": 5551,
      "boosts": 5552,
      "embarrassing": 5553,
      "specialist": 5554,
      "ordinary": 5555,
      "attacks": 5556,
      "recipes": 5557,
      "evaluate": 5558,
      "appropriate": 5559,
      "abrup": 5560,
      "ifs": 5561,
      "master": 5562,
      "liter": 5563,
      "aligning": 5564,
      "fitting": 5565,
      "scratch": 5566,
      "mouth": 5567,
      "agg": 5568,
      "replay": 5569,
      "suffered": 5570,
      "six": 5571,
      "compass": 5572,
      "consideration": 5573,
      "usions": 5574,
      "mentorship": 5575,
      "crumbled": 5576,
      "decline": 5577,
      "hide": 5578,
      "ibility": 5579,
      "ulthood": 5580,
      "shel": 5581,
      "objective": 5582,
      "spiraled": 5583,
      "underestimate": 5584,
      "Ever": 5585,
      "Gri": 5586,
      "elines": 5587,
      "adulthood": 5588,
      "suppress": 5589,
      "prop": 5590,
      "strengthens": 5591,
      "Consider": 5592,
      "pretending": 5593,
      "inherently": 5594,
      "Grie": 5595,
      "stract": 5596,
      "validity": 5597,
      "unexpl": 5598,
      "discipline": 5599,
      "Grieving": 5600,
      "fr": 5601,
      "Using": 5602,
      "demor": 5603,
      "pressured": 5604,
      "useful": 5605,
      "serving": 5606,
      "continuously": 5607,
      "roadmap": 5608,
      "manifesting": 5609,
      "satisfied": 5610,
      "disrupt": 5611,
      "encies": 5612,
      "Rome": 5613,
      "sees": 5614,
      "relates": 5615,
      "engul": 5616,
      "education": 5617,
      "lin": 5618,
      "none": 5619,
      "resent": 5620,
      "sincere": 5621,
      "flowers": 5622,
      "heighten": 5623,
      "rejuvenate": 5624,
      "Personal": 5625,
      "Both": 5626,
      "athy": 5627,
      "venture": 5628,
      "Chronic": 5629,
      "arising": 5630,
      "Reminding": 5631,
      "bes": 5632,
      "expose": 5633,
      "friendly": 5634,
      "transformations": 5635,
      "Most": 5636,
      "bless": 5637,
      "lab": 5638,
      "alization": 5639,
      "vitality": 5640,
      "licit": 5641,
      "intriguing": 5642,
      "excluded": 5643,
      "revolves": 5644,
      "tangle": 5645,
      "burnout": 5646,
      "All": 5647,
      "fallen": 5648,
      "vices": 5649,
      "nose": 5650,
      "overwhelms": 5651,
      "prioritized": 5652,
      "transforming": 5653,
      "affirming": 5654,
      "existence": 5655,
      "pictures": 5656,
      "unlock": 5657,
      "table": 5658,
      "zz": 5659,
      "isms": 5660,
      "entering": 5661,
      "gift": 5662,
      "possibly": 5663,
      "collaborate": 5664,
      "jeopardize": 5665,
      "unexplained": 5666,
      "pt": 5667,
      "reput": 5668,
      "suits": 5669,
      "dissatisfaction": 5670,
      "driven": 5671,
      "instantly": 5672,
      "stagnant": 5673,
      "bub": 5674,
      "fright": 5675,
      "scre": 5676,
      "incompetent": 5677,
      "chose": 5678,
      "impressive": 5679,
      "criticisms": 5680,
      "aspiration": 5681,
      "immersed": 5682,
      "occasional": 5683,
      "Vis": 5684,
      "dra": 5685,
      "roles": 5686,
      "damaging": 5687,
      "drink": 5688,
      "dull": 5689,
      "tending": 5690,
      "condu": 5691,
      "Though": 5692,
      "untangle": 5693,
      "note": 5694,
      "defining": 5695,
      "weekends": 5696,
      "fueled": 5697,
      "liberation": 5698,
      "faded": 5699,
      "exhibi": 5700,
      "Sleep": 5701,
      "theme": 5702,
      "arader": 5703,
      "camarader": 5704,
      "cooperative": 5705,
      "replenish": 5706,
      "camaraderie": 5707,
      "outdoor": 5708,
      "trap": 5709,
      "promp": 5710,
      "nerves": 5711,
      "pressive": 5712,
      "defend": 5713,
      "surrounds": 5714,
      "highs": 5715,
      "prevented": 5716,
      "anticipating": 5717,
      "conclusions": 5718,
      "rejuvenating": 5719,
      "crumbling": 5720,
      "magical": 5721,
      "label": 5722,
      "record": 5723,
      "respects": 5724,
      "answer": 5725,
      "component": 5726,
      "reconcile": 5727,
      "advance": 5728,
      "sweat": 5729,
      "abruptly": 5730,
      "dog": 5731,
      "listened": 5732,
      "voices": 5733,
      "rejuvenation": 5734,
      "Neg": 5735,
      "Cou": 5736,
      "cup": 5737,
      "frame": 5738,
      "intru": 5739,
      "haunting": 5740,
      "geting": 5741,
      "completed": 5742,
      "biased": 5743,
      "Exerc": 5744,
      "appealing": 5745,
      "succeeding": 5746,
      "laughed": 5747,
      "delegating": 5748,
      "yield": 5749,
      "Res": 5750,
      "input": 5751,
      "seat": 5752,
      "explicit": 5753,
      "ffective": 5754,
      "smart": 5755,
      "mustered": 5756,
      "images": 5757,
      "lows": 5758,
      "chaotic": 5759,
      "updates": 5760,
      "rewards": 5761,
      "demoralizing": 5762,
      "lining": 5763,
      "alert": 5764,
      "virt": 5765,
      "gued": 5766,
      "wash": 5767,
      "fatigued": 5768,
      "bottom": 5769,
      "studio": 5770,
      "unmet": 5771,
      "peacefulness": 5772,
      "anced": 5773,
      "blue": 5774,
      "observing": 5775,
      "snap": 5776,
      "disheart": 5777,
      "scrolling": 5778,
      "specialists": 5779,
      "belittle": 5780,
      "minimize": 5781,
      "restoring": 5782,
      "breakdowns": 5783,
      "jumping": 5784,
      "reveal": 5785,
      "flick": 5786,
      "Couples": 5787,
      "Je": 5788,
      "depressive": 5789,
      "ared": 5790,
      "inevit": 5791,
      "addicted": 5792,
      "gestures": 5793,
      "Jealous": 5794,
      "bing": 5795,
      "pot": 5796,
      "ags": 5797,
      "imagining": 5798,
      "consult": 5799,
      "organize": 5800,
      "unraveling": 5801,
      "semblance": 5802,
      "Working": 5803,
      "Exercise": 5804,
      "disheartened": 5805,
      "Jealousy": 5806,
      "veget": 5807,
      "cture": 5808,
      "Joh": 5809,
      "materials": 5810,
      "Emily": 5811,
      "dating": 5812,
      "rewrite": 5813,
      "Does": 5814,
      "repeated": 5815,
      "culture": 5816,
      "cry": 5817,
      "gate": 5818,
      "insepar": 5819,
      "unbiased": 5820,
      "post": 5821,
      "disregard": 5822,
      "breakups": 5823,
      "engagement": 5824,
      "strides": 5825,
      "juggle": 5826,
      "inseparable": 5827,
      "bomb": 5828,
      "doubted": 5829,
      "beforehand": 5830,
      "complexity": 5831,
      "enthusiastic": 5832,
      "visualize": 5833,
      "dur": 5834,
      "independ": 5835,
      "retreat": 5836,
      "pretend": 5837,
      "showed": 5838,
      "perfectionism": 5839,
      "distur": 5840,
      "independently": 5841,
      "four": 5842,
      "revel": 5843,
      "apps": 5844,
      "applying": 5845,
      "guidelines": 5846,
      "theirs": 5847,
      "Inte": 5848,
      "destin": 5849,
      "unpack": 5850,
      "uous": 5851,
      "worlds": 5852,
      "Often": 5853,
      "conditions": 5854,
      "competition": 5855,
      "beside": 5856,
      "besides": 5857,
      "ential": 5858,
      "elusive": 5859,
      "sual": 5860,
      "exposing": 5861,
      "fications": 5862,
      "types": 5863,
      "stig": 5864,
      "remaining": 5865,
      "tightness": 5866,
      "palms": 5867,
      "awa": 5868,
      "gular": 5869,
      "vac": 5870,
      "tifying": 5871,
      "advisor": 5872,
      "Regular": 5873,
      "asts": 5874,
      "dictate": 5875,
      "convince": 5876,
      "duration": 5877,
      "rewi": 5878,
      "ric": 5879,
      "wherever": 5880,
      "comprehensive": 5881,
      "platform": 5882,
      "photos": 5883,
      "uniqueness": 5884,
      "Med": 5885,
      "stages": 5886,
      "visors": 5887,
      "weaknesses": 5888,
      "Where": 5889,
      "hate": 5890,
      "opp": 5891,
      "punch": 5892,
      "sab": 5893,
      "suit": 5894,
      "compati": 5895,
      "name": 5896,
      "meaningless": 5897,
      "weighed": 5898,
      "blown": 5899,
      "demonstrating": 5900,
      "prefer": 5901,
      "domin": 5902,
      "Regard": 5903,
      "accepts": 5904,
      "spot": 5905,
      "sparks": 5906,
      "reinforcing": 5907,
      "rekindling": 5908,
      "sket": 5909,
      "reel": 5910,
      "undermin": 5911,
      "Why": 5912,
      "enthusiasts": 5913,
      "Friendships": 5914,
      "John": 5915,
      "sabot": 5916,
      "ton": 5917,
      "error": 5918,
      "elds": 5919,
      "crush": 5920,
      "complement": 5921,
      "responded": 5922,
      "reciprocate": 5923,
      "utilize": 5924,
      "praise": 5925,
      "delighted": 5926,
      "framing": 5927,
      "utter": 5928,
      "web": 5929,
      "quali": 5930,
      "settle": 5931,
      "skin": 5932,
      "brainstor": 5933,
      "landscape": 5934,
      "adopting": 5935,
      "flexibility": 5936,
      "Empathy": 5937,
      "skyro": 5938,
      "Lean": 5939,
      "sending": 5940,
      "sere": 5941,
      "undervalued": 5942,
      "solitude": 5943,
      "settled": 5944,
      "confided": 5945,
      "Anything": 5946,
      "allocating": 5947,
      "sports": 5948,
      "reevaluate": 5949,
      "Integr": 5950,
      "emails": 5951,
      "reassured": 5952,
      "medications": 5953,
      "higher": 5954,
      "broad": 5955,
      "excessively": 5956,
      "academically": 5957,
      "odies": 5958,
      "changer": 5959,
      "survi": 5960,
      "velength": 5961,
      "wavelength": 5962,
      "amplifying": 5963,
      "damaged": 5964,
      "irrational": 5965,
      "Finan": 5966,
      "Integrating": 5967,
      "Man": 5968,
      "send": 5969,
      "invig": 5970,
      "movie": 5971,
      "peacefully": 5972,
      "morrow": 5973,
      "dismissal": 5974,
      "scal": 5975,
      "throw": 5976,
      "tomorrow": 5977,
      "backseat": 5978,
      "lesson": 5979,
      "structuring": 5980,
      "terrible": 5981,
      "separation": 5982,
      "Prof": 5983,
      "basics": 5984,
      "Managing": 5985,
      "sadd": 5986,
      "itation": 5987,
      "focuses": 5988,
      "questioned": 5989,
      "deadline": 5990,
      "hangs": 5991,
      "glimpse": 5992,
      "vegetables": 5993,
      "Profession": 5994,
      "Iden": 5995,
      "forced": 5996,
      "roof": 5997,
      "exceed": 5998,
      "disappear": 5999,
      "spon": 6000,
      "turbul": 6001,
      "flags": 6002,
      "highly": 6003,
      "centers": 6004,
      "seeping": 6005,
      "disorienting": 6006,
      "Effective": 6007,
      "proceed": 6008,
      "poor": 6009,
      "transformed": 6010,
      "completing": 6011,
      "drains": 6012,
      "controlled": 6013,
      "explicitly": 6014,
      "algi": 6015,
      "fields": 6016,
      "ocking": 6017,
      "fruits": 6018,
      "Financial": 6019,
      "imb": 6020,
      "erod": 6021,
      "expressive": 6022,
      "quest": 6023,
      "fool": 6024,
      "motivations": 6025,
      "imagination": 6026,
      "witnessed": 6027,
      "compromised": 6028,
      "terrified": 6029,
      "attracting": 6030,
      "appointments": 6031,
      "looming": 6032,
      "accurate": 6033,
      "awaits": 6034,
      "scale": 6035,
      "rediscovery": 6036,
      "arms": 6037,
      "extends": 6038,
      "shocking": 6039,
      "sions": 6040,
      "agre": 6041,
      "measured": 6042,
      "budgeting": 6043,
      "perpetuates": 6044,
      "Identifying": 6045,
      "imbal": 6046,
      "Ar": 6047,
      "ption": 6048,
      "verbal": 6049,
      "plag": 6050,
      "facade": 6051,
      "studies": 6052,
      "humi": 6053,
      "maturity": 6054,
      "wander": 6055,
      "scrut": 6056,
      "competitive": 6057,
      "mirror": 6058,
      "automatically": 6059,
      "compliments": 6060,
      "flicker": 6061,
      "Sad": 6062,
      "fitness": 6063,
      "pand": 6064,
      "abstract": 6065,
      "processes": 6066,
      "rooting": 6067,
      "investment": 6068,
      "Understand": 6069,
      "taste": 6070,
      "waters": 6071,
      "brainstorming": 6072,
      "Max": 6073,
      "senses": 6074,
      "determine": 6075,
      "empathi": 6076,
      "services": 6077,
      "concentration": 6078,
      "Reaching": 6079,
      "authors": 6080,
      "distancing": 6081,
      "cu": 6082,
      "indu": 6083,
      "proven": 6084,
      "workday": 6085,
      "minor": 6086,
      "familiarity": 6087,
      "calling": 6088,
      "clients": 6089,
      "reciprocated": 6090,
      "smoothly": 6091,
      "revelation": 6092,
      "bath": 6093,
      "ono": 6094,
      "trial": 6095,
      "stresses": 6096,
      "deplet": 6097,
      "envisioning": 6098,
      "steady": 6099,
      "falls": 6100,
      "territory": 6101,
      "highlighting": 6102,
      "Progress": 6103,
      "enriching": 6104,
      "thus": 6105,
      "enter": 6106,
      "someday": 6107,
      "uncture": 6108,
      "surfacing": 6109,
      "foundations": 6110,
      "Unfortunately": 6111,
      "introducing": 6112,
      "visualization": 6113,
      "Visu": 6114,
      "Doub": 6115,
      "Emotions": 6116,
      "unmotivated": 6117,
      "hole": 6118,
      "schoolwork": 6119,
      "exacerbates": 6120,
      "expert": 6121,
      "desperate": 6122,
      "large": 6123,
      "decreased": 6124,
      "serene": 6125,
      "depleted": 6126,
      "sed": 6127,
      "prog": 6128,
      "promin": 6129,
      "anywhere": 6130,
      "upuncture": 6131,
      "aph": 6132,
      "spaces": 6133,
      "boosted": 6134,
      "volunteer": 6135,
      "ckets": 6136,
      "kward": 6137,
      "pit": 6138,
      "sitions": 6139,
      "voking": 6140,
      "reflected": 6141,
      "awkward": 6142,
      "sticking": 6143,
      "tribute": 6144,
      "tricky": 6145,
      "Isolation": 6146,
      "private": 6147,
      "exposed": 6148,
      "ading": 6149,
      "intend": 6150,
      "tendencies": 6151,
      "warning": 6152,
      "extraordinary": 6153,
      "primarily": 6154,
      "mourning": 6155,
      "preserving": 6156,
      "traditional": 6157,
      "clouded": 6158,
      "intrusive": 6159,
      "Valid": 6160,
      "mask": 6161,
      "pages": 6162,
      "atus": 6163,
      "celebration": 6164,
      "brushstrokes": 6165,
      "brick": 6166,
      "debilit": 6167,
      "detached": 6168,
      "negotiable": 6169,
      "restructuring": 6170,
      "chi": 6171,
      "challenged": 6172,
      "processed": 6173,
      "smell": 6174,
      "incorporates": 6175,
      "Allowing": 6176,
      "gaps": 6177,
      "educate": 6178,
      "defeat": 6179,
      "photographers": 6180,
      "preserve": 6181,
      "resorting": 6182,
      "granted": 6183,
      "await": 6184,
      "resonated": 6185,
      "attentively": 6186,
      "tremendously": 6187,
      "encountering": 6188,
      "haunt": 6189,
      "innocently": 6190,
      "stigma": 6191,
      "debilitating": 6192,
      "status": 6193,
      "beach": 6194,
      "ester": 6195,
      "filling": 6196,
      "chores": 6197,
      "store": 6198,
      "showc": 6199,
      "pleasures": 6200,
      "accomplishing": 6201,
      "blindsided": 6202,
      "drawal": 6203,
      "Wow": 6204,
      "oved": 6205,
      "ital": 6206,
      "beating": 6207,
      "exchange": 6208,
      "wors": 6209,
      "wearing": 6210,
      "unwilling": 6211,
      "joint": 6212,
      "beloved": 6213,
      "motivates": 6214,
      "intensifying": 6215,
      "logical": 6216,
      "magically": 6217,
      "Giving": 6218,
      "Avoiding": 6219,
      "fant": 6220,
      "nic": 6221,
      "conven": 6222,
      "composed": 6223,
      "casual": 6224,
      "refuse": 6225,
      "freeing": 6226,
      "reliving": 6227,
      "boundary": 6228,
      "handled": 6229,
      "tures": 6230,
      "teamwork": 6231,
      "exacerbating": 6232,
      "deliver": 6233,
      "melodies": 6234,
      "inevitable": 6235,
      "onomy": 6236,
      "Ah": 6237,
      "refocus": 6238,
      "effici": 6239,
      "cked": 6240,
      "visiting": 6241,
      "virtual": 6242,
      "Never": 6243,
      "sth": 6244,
      "inability": 6245,
      "owe": 6246,
      "compl": 6247,
      "recover": 6248,
      "firsth": 6249,
      "himself": 6250,
      "regards": 6251,
      "monotonous": 6252,
      "firsthand": 6253,
      "Put": 6254,
      "gency": 6255,
      "uma": 6256,
      "shouting": 6257,
      "surely": 6258,
      "weekly": 6259,
      "Friends": 6260,
      "Trauma": 6261,
      "nitude": 6262,
      "constrain": 6263,
      "medium": 6264,
      "igniting": 6265,
      "uplifts": 6266,
      "magnitude": 6267,
      "market": 6268,
      "shelter": 6269,
      "broaden": 6270,
      "fits": 6271,
      "senti": 6272,
      "divide": 6273,
      "unfair": 6274,
      "creations": 6275,
      "cepting": 6276,
      "mornings": 6277,
      "haunts": 6278,
      "glimpses": 6279,
      "dampen": 6280,
      "sweaty": 6281,
      "gment": 6282,
      "lur": 6283,
      "Were": 6284,
      "expects": 6285,
      "hesitated": 6286,
      "transp": 6287,
      "lightening": 6288,
      "mindedness": 6289,
      "Accepting": 6290,
      "interrupted": 6291,
      "competence": 6292,
      "drifted": 6293,
      "Continue": 6294,
      "constraints": 6295,
      "withdrawal": 6296,
      "depending": 6297,
      "deny": 6298,
      "chore": 6299,
      "variety": 6300,
      "hiding": 6301,
      "accommod": 6302,
      "Regarding": 6303,
      "crushing": 6304,
      "flame": 6305,
      "acupuncture": 6306,
      "unworthiness": 6307,
      "acks": 6308,
      "beginners": 6309,
      "secret": 6310,
      "advant": 6311,
      "target": 6312,
      "disturb": 6313,
      "inducing": 6314,
      "Mis": 6315,
      "hal": 6316,
      "hardly": 6317,
      "hinders": 6318,
      "socializing": 6319,
      "paralyzed": 6320,
      "flexible": 6321,
      "pillars": 6322,
      "engulf": 6323,
      "linked": 6324,
      "encompass": 6325,
      "persevere": 6326,
      "harness": 6327,
      "perpetuate": 6328,
      "tiny": 6329,
      "Putting": 6330,
      "instill": 6331,
      "vies": 6332,
      "excelling": 6333,
      "refine": 6334,
      "description": 6335,
      "Emotionally": 6336,
      "rewire": 6337,
      "wavelengths": 6338,
      "prominent": 6339,
      "Mark": 6340,
      "mode": 6341,
      "size": 6342,
      "elsewhere": 6343,
      "delicious": 6344,
      "document": 6345,
      "Cher": 6346,
      "rhy": 6347,
      "movies": 6348,
      "contact": 6349,
      "acknowledgment": 6350,
      "Asser": 6351,
      "followed": 6352,
      "assuming": 6353,
      "finished": 6354,
      "emic": 6355,
      "ran": 6356,
      "twi": 6357,
      "reper": 6358,
      "stalgi": 6359,
      "seed": 6360,
      "propose": 6361,
      "nostalgi": 6362,
      "confidential": 6363,
      "strict": 6364,
      "adjustment": 6365,
      "soothe": 6366,
      "counterbalance": 6367,
      "harmful": 6368,
      "debt": 6369,
      "convinced": 6370,
      "frightening": 6371,
      "pandemic": 6372,
      "gin": 6373,
      "forth": 6374,
      "overdrive": 6375,
      "fication": 6376,
      "rylic": 6377,
      "ruin": 6378,
      "stayed": 6379,
      "collaborating": 6380,
      "umes": 6381,
      "criticizes": 6382,
      "assume": 6383,
      "tane": 6384,
      "enrich": 6385,
      "propel": 6386,
      "spontane": 6387,
      "imbalance": 6388,
      "adi": 6389,
      "replaced": 6390,
      "tories": 6391,
      "orph": 6392,
      "cozy": 6393,
      "forums": 6394,
      "endorph": 6395,
      "unsupported": 6396,
      "overthink": 6397,
      "starters": 6398,
      "Something": 6399,
      "Begin": 6400,
      "satisfying": 6401,
      "lifeline": 6402,
      "worthlessness": 6403,
      "vacation": 6404,
      "agreed": 6405,
      "oce": 6406,
      "artial": 6407,
      "impartial": 6408,
      "ggage": 6409,
      "feeds": 6410,
      "experimentation": 6411,
      "baggage": 6412,
      "sacrifices": 6413,
      "assignments": 6414,
      "Rather": 6415,
      "Was": 6416,
      "reflective": 6417,
      "crib": 6418,
      "collective": 6419,
      "extern": 6420,
      "counselors": 6421,
      "thrilling": 6422,
      "accompanies": 6423,
      "ocean": 6424,
      "mbling": 6425,
      "arted": 6426,
      "cerity": 6427,
      "paid": 6428,
      "strongly": 6429,
      "alleviating": 6430,
      "established": 6431,
      "autonomy": 6432,
      "sincerity": 6433,
      "reshape": 6434,
      "lurking": 6435,
      "endorphins": 6436,
      "His": 6437,
      "bird": 6438,
      "diges": 6439,
      "training": 6440,
      "impression": 6441,
      "Experi": 6442,
      "college": 6443,
      "astro": 6444,
      "supervisors": 6445,
      "crazy": 6446,
      "anticipated": 6447,
      "silver": 6448,
      "schedules": 6449,
      "study": 6450,
      "affordable": 6451,
      "disturbances": 6452,
      "rhyth": 6453,
      "games": 6454,
      "escrib": 6455,
      "rob": 6456,
      "model": 6457,
      "obje": 6458,
      "laying": 6459,
      "intervention": 6460,
      "Physically": 6461,
      "escribable": 6462,
      "rational": 6463,
      "outs": 6464,
      "indescribable": 6465,
      "Event": 6466,
      "tini": 6467,
      "undermine": 6468,
      "hosti": 6469,
      "pockets": 6470,
      "plum": 6471,
      "considerate": 6472,
      "required": 6473,
      "volumes": 6474,
      "highlights": 6475,
      "ambitions": 6476,
      "bubble": 6477,
      "tiniest": 6478,
      "etry": 6479,
      "gall": 6480,
      "hinde": 6481,
      "pu": 6482,
      "uct": 6483,
      "forge": 6484,
      "devo": 6485,
      "bump": 6486,
      "interruption": 6487,
      "industries": 6488,
      "destinations": 6489,
      "Understandably": 6490,
      "Eventually": 6491,
      "hindered": 6492,
      "instability": 6493,
      "ulation": 6494,
      "wear": 6495,
      "apparent": 6496,
      "interfering": 6497,
      "repeti": 6498,
      "functioning": 6499,
      "adopt": 6500,
      "accompanied": 6501,
      "zest": 6502,
      "antial": 6503,
      "enlightening": 6504,
      "stantial": 6505,
      "arose": 6506,
      "reluct": 6507,
      "disbelief": 6508,
      "begun": 6509,
      "strengthened": 6510,
      "substantial": 6511,
      "mutually": 6512,
      "pivo": 6513,
      "appearing": 6514,
      "bottle": 6515,
      "eagerness": 6516,
      "uneasy": 6517,
      "canceling": 6518,
      "straightforward": 6519,
      "symbo": 6520,
      "wood": 6521,
      "chun": 6522,
      "adrift": 6523,
      "carefree": 6524,
      "backs": 6525,
      "reflections": 6526,
      "burdensome": 6527,
      "clouding": 6528,
      "reinforced": 6529,
      "fights": 6530,
      "silly": 6531,
      "lucky": 6532,
      "reputable": 6533,
      "exhibition": 6534,
      "Professional": 6535,
      "pivotal": 6536,
      "ny": 6537,
      "hable": 6538,
      "getic": 6539,
      "elled": 6540,
      "unle": 6541,
      "unavailable": 6542,
      "tery": 6543,
      "cussions": 6544,
      "number": 6545,
      "availability": 6546,
      "clock": 6547,
      "troubles": 6548,
      "occasionally": 6549,
      "engulfs": 6550,
      "Clear": 6551,
      "ipul": 6552,
      "tail": 6553,
      "beac": 6554,
      "access": 6555,
      "contra": 6556,
      "poetry": 6557,
      "manipul": 6558,
      "rumin": 6559,
      "prepar": 6560,
      "persists": 6561,
      "flowing": 6562,
      "educating": 6563,
      "seeped": 6564,
      "wanders": 6565,
      "praised": 6566,
      "Physical": 6567,
      "consulting": 6568,
      "qualified": 6569,
      "repercussions": 6570,
      "contradict": 6571,
      "blos": 6572,
      "wo": 6573,
      "tracking": 6574,
      "unfortunately": 6575,
      "indifferen": 6576,
      "presentations": 6577,
      "emerged": 6578,
      "interruptions": 6579,
      "battles": 6580,
      "revolve": 6581,
      "swimming": 6582,
      "birds": 6583,
      "esterday": 6584,
      "advantage": 6585,
      "chunks": 6586,
      "Witness": 6587,
      "ridi": 6588,
      "teen": 6589,
      "cast": 6590,
      "progressing": 6591,
      "Collabor": 6592,
      "suffocated": 6593,
      "catastro": 6594,
      "calls": 6595,
      "apologized": 6596,
      "controlling": 6597,
      "Witnessing": 6598,
      "Po": 6599,
      "repar": 6600,
      "cive": 6601,
      "carefully": 6602,
      "normalcy": 6603,
      "interfe": 6604,
      "shoes": 6605,
      "touching": 6606,
      "Throughout": 6607,
      "belittled": 6608,
      "Affirm": 6609,
      "clarify": 6610,
      "conducive": 6611,
      "Negative": 6612,
      "progressive": 6613,
      "rect": 6614,
      "tomed": 6615,
      "achable": 6616,
      "contr": 6617,
      "provoking": 6618,
      "however": 6619,
      "clutch": 6620,
      "Here": 6621,
      "Hearing": 6622,
      "deserved": 6623,
      "grades": 6624,
      "drives": 6625,
      "reduction": 6626,
      "existed": 6627,
      "amplified": 6628,
      "overshadowing": 6629,
      "accustomed": 6630,
      "basket": 6631,
      "Time": 6632,
      "digestive": 6633,
      "Affirmations": 6634,
      "clutches": 6635,
      "lementing": 6636,
      "cook": 6637,
      "lovable": 6638,
      "nology": 6639,
      "thinks": 6640,
      "qued": 6641,
      "paving": 6642,
      "beautifully": 6643,
      "innermost": 6644,
      "remarks": 6645,
      "measures": 6646,
      "animal": 6647,
      "trips": 6648,
      "defensively": 6649,
      "pleas": 6650,
      "involvement": 6651,
      "Give": 6652,
      "restlessness": 6653,
      "Implementing": 6654,
      "disregarded": 6655,
      "basketball": 6656,
      "text": 6657,
      "acces": 6658,
      "endure": 6659,
      "spread": 6660,
      "spills": 6661,
      "washes": 6662,
      "bury": 6663,
      "transitions": 6664,
      "Overall": 6665,
      "humili": 6666,
      "ctiveness": 6667,
      "mant": 6668,
      "yesterday": 6669,
      "vert": 6670,
      "burying": 6671,
      "arisen": 6672,
      "piqued": 6673,
      "tangled": 6674,
      "utterly": 6675,
      "Visualizing": 6676,
      "Apart": 6677,
      "Sha": 6678,
      "throwing": 6679,
      "vided": 6680,
      "thered": 6681,
      "otherwise": 6682,
      "mediums": 6683,
      "networks": 6684,
      "attempting": 6685,
      "tug": 6686,
      "traits": 6687,
      "fullest": 6688,
      "deepened": 6689,
      "distanced": 6690,
      "oppos": 6691,
      "Grow": 6692,
      "bum": 6693,
      "album": 6694,
      "arant": 6695,
      "cover": 6696,
      "vigi": 6697,
      "guarant": 6698,
      "intel": 6699,
      "toolbox": 6700,
      "dependency": 6701,
      "surprises": 6702,
      "diagnosed": 6703,
      "unlovable": 6704,
      "cheerlead": 6705,
      "video": 6706,
      "Meditation": 6707,
      "Growth": 6708,
      "van": 6709,
      "accum": 6710,
      "abund": 6711,
      "som": 6712,
      "unreliable": 6713,
      "togetherness": 6714,
      "energetic": 6715,
      "served": 6716,
      "blend": 6717,
      "destined": 6718,
      "helplessness": 6719,
      "psycho": 6720,
      "animals": 6721,
      "opposite": 6722,
      "baby": 6723,
      "reintegrate": 6724,
      "acrylic": 6725,
      "brewing": 6726,
      "differ": 6727,
      "toughest": 6728,
      "cording": 6729,
      "symptom": 6730,
      "oriented": 6731,
      "puzz": 6732,
      "30": 6733,
      "athing": 6734,
      "ano": 6735,
      "according": 6736,
      "ulating": 6737,
      "trustworthy": 6738,
      "included": 6739,
      "relieving": 6740,
      "yiel": 6741,
      "invigorating": 6742,
      "rhythm": 6743,
      "Bring": 6744,
      "attribut": 6745,
      "ene": 6746,
      "elim": 6747,
      "ury": 6748,
      "Soci": 6749,
      "cycles": 6750,
      "bleak": 6751,
      "subconscious": 6752,
      "Comparisons": 6753,
      "labeled": 6754,
      "repetitive": 6755,
      "10": 6756,
      "Scared": 6757,
      "prec": 6758,
      "rling": 6759,
      "unspoken": 6760,
      "surable": 6761,
      "ished": 6762,
      "regulate": 6763,
      "Someone": 6764,
      "counting": 6765,
      "curve": 6766,
      "collaboratively": 6767,
      "surprisingly": 6768,
      "unleash": 6769,
      "beacon": 6770,
      "ctic": 6771,
      "inci": 6772,
      "ories": 6773,
      "wild": 6774,
      "chody": 6775,
      "perpet": 6776,
      "herb": 6777,
      "technology": 6778,
      "nurtured": 6779,
      "piano": 6780,
      "swirling": 6781,
      "entrepreneurs": 6782,
      "stretching": 6783,
      "pottery": 6784,
      "elimin": 6785,
      "chodynamic": 6786,
      "Show": 6787,
      "School": 6788,
      "rand": 6789,
      "verse": 6790,
      "unit": 6791,
      "hesitations": 6792,
      "portion": 6793,
      "brushstroke": 6794,
      "Accept": 6795,
      "combined": 6796,
      "Without": 6797,
      "uplifted": 6798,
      "flawed": 6799,
      "employee": 6800,
      "seeps": 6801,
      "climbing": 6802,
      "accessible": 6803,
      "Bringing": 6804,
      "Ste": 6805,
      "kit": 6806,
      "reigniting": 6807,
      "tid": 6808,
      "raise": 6809,
      "effectiveness": 6810,
      "venturing": 6811,
      "pushes": 6812,
      "Excitement": 6813,
      "attached": 6814,
      "eth": 6815,
      "igh": 6816,
      "kic": 6817,
      "oting": 6818,
      "fulfills": 6819,
      "realm": 6820,
      "lighting": 6821,
      "freel": 6822,
      "assumed": 6823,
      "assigning": 6824,
      "secrets": 6825,
      "crossed": 6826,
      "afterwards": 6827,
      "Comparison": 6828,
      "pable": 6829,
      "withstand": 6830,
      "eries": 6831,
      "communications": 6832,
      "double": 6833,
      "carries": 6834,
      "dismissing": 6835,
      "suffici": 6836,
      "employment": 6837,
      "mounting": 6838,
      "palpable": 6839,
      "mountains": 6840,
      "half": 6841,
      "reluctant": 6842,
      "tidal": 6843,
      "decei": 6844,
      "whis": 6845,
      "relating": 6846,
      "upsetting": 6847,
      "Exp": 6848,
      "breathtaking": 6849,
      "recommended": 6850,
      "experimented": 6851,
      "crowd": 6852,
      "reminisce": 6853,
      "Society": 6854,
      "Acceptance": 6855,
      "request": 6856,
      "surreal": 6857,
      "protection": 6858,
      "runs": 6859,
      "blocking": 6860,
      "shapes": 6861,
      "equipment": 6862,
      "birth": 6863,
      "Tired": 6864,
      "indifference": 6865,
      "Stepping": 6866,
      "awe": 6867,
      "iny": 6868,
      "ero": 6869,
      "acies": 6870,
      "libri": 6871,
      "ripped": 6872,
      "mistr": 6873,
      "drew": 6874,
      "presented": 6875,
      "aspiring": 6876,
      "Acknowledge": 6877,
      "Conflicts": 6878,
      "More": 6879,
      "equilibri": 6880,
      "belittling": 6881,
      "magic": 6882,
      "Grad": 6883,
      "Tran": 6884,
      "sentiment": 6885,
      "equilibrium": 6886,
      "Ach": 6887,
      "buri": 6888,
      "fal": 6889,
      "jus": 6890,
      "enab": 6891,
      "enroll": 6892,
      "hab": 6893,
      "cian": 6894,
      "hike": 6895,
      "brightly": 6896,
      "numbing": 6897,
      "superficial": 6898,
      "teaching": 6899,
      "lux": 6900,
      "relapses": 6901,
      "preservation": 6902,
      "consulted": 6903,
      "buried": 6904,
      "turing": 6905,
      "tum": 6906,
      "tirel": 6907,
      "neigh": 6908,
      "ultuous": 6909,
      "perman": 6910,
      "celebrated": 6911,
      "bonding": 6912,
      "adapting": 6913,
      "haunted": 6914,
      "program": 6915,
      "sabotage": 6916,
      "nostalgia": 6917,
      "ethic": 6918,
      "tumultuous": 6919,
      "tireless": 6920,
      "Mem": 6921,
      "umental": 6922,
      "hovering": 6923,
      "worker": 6924,
      "downplay": 6925,
      "faceted": 6926,
      "memorial": 6927,
      "monumental": 6928,
      "lights": 6929,
      "wasting": 6930,
      "licity": 6931,
      "adults": 6932,
      "imperfection": 6933,
      "impulsively": 6934,
      "plumme": 6935,
      "symboli": 6936,
      "Achie": 6937,
      "Memories": 6938,
      "Ide": 6939,
      "hale": 6940,
      "ink": 6941,
      "outings": 6942,
      "grips": 6943,
      "heads": 6944,
      "interpre": 6945,
      "shook": 6946,
      "appeared": 6947,
      "written": 6948,
      "deteriorating": 6949,
      "turbulent": 6950,
      "tirelessly": 6951,
      "TV": 6952,
      "hint": 6953,
      "thor": 6954,
      "ancy": 6955,
      "erate": 6956,
      "epis": 6957,
      "uninterrupted": 6958,
      "jot": 6959,
      "rule": 6960,
      "visions": 6961,
      "movement": 6962,
      "Perfe": 6963,
      "fading": 6964,
      "psychodynamic": 6965,
      "triumphs": 6966,
      "masterpiece": 6967,
      "plagu": 6968,
      "random": 6969,
      "Cap": 6970,
      "lending": 6971,
      "yard": 6972,
      "cool": 6973,
      "pod": 6974,
      "email": 6975,
      "contain": 6976,
      "gym": 6977,
      "signals": 6978,
      "promotions": 6979,
      "associate": 6980,
      "drop": 6981,
      "resentful": 6982,
      "scrutiny": 6983,
      "Achieving": 6984,
      "Ideally": 6985,
      "rown": 6986,
      "tigate": 6987,
      "sually": 6988,
      "urges": 6989,
      "wered": 6990,
      "poli": 6991,
      "denial": 6992,
      "envious": 6993,
      "physician": 6994,
      "interview": 6995,
      "empowers": 6996,
      "Notice": 6997,
      "answered": 6998,
      "sooner": 6999,
      "apology": 7000,
      "representation": 7001,
      "excluding": 7002,
      "Arti": 7003,
      "Capturing": 7004,
      "Yet": 7005,
      "iest": 7006,
      "infe": 7007,
      "intr": 7008,
      "feet": 7009,
      "footing": 7010,
      "lists": 7011,
      "embody": 7012,
      "aughter": 7013,
      "refers": 7014,
      "trees": 7015,
      "nonjudgmental": 7016,
      "lications": 7017,
      "Communicating": 7018,
      "silent": 7019,
      "stumbling": 7020,
      "associations": 7021,
      "skepticism": 7022,
      "entrepreneurship": 7023,
      "attachment": 7024,
      "varying": 7025,
      "bombard": 7026,
      "sketch": 7027,
      "Clo": 7028,
      "merely": 7029,
      "hectic": 7030,
      "verge": 7031,
      "Repe": 7032,
      "overpower": 7033,
      "backyard": 7034,
      "defenses": 7035,
      "miscommunications": 7036,
      "technic": 7037,
      "simplicity": 7038,
      "depends": 7039,
      "slightly": 7040,
      "deterior": 7041,
      "screen": 7042,
      "luxury": 7043,
      "Closure": 7044,
      "lash": 7045,
      "sne": 7046,
      "vant": 7047,
      "sted": 7048,
      "location": 7049,
      "arts": 7050,
      "unless": 7051,
      "noise": 7052,
      "crept": 7053,
      "applau": 7054,
      "refu": 7055,
      "Nothing": 7056,
      "blur": 7057,
      "busyness": 7058,
      "catalysts": 7059,
      "Encourage": 7060,
      "savings": 7061,
      "clouds": 7062,
      "Sadness": 7063,
      "Artistic": 7064,
      "Cre": 7065,
      "ai": 7066,
      "united": 7067,
      "applied": 7068,
      "irrepar": 7069,
      "longed": 7070,
      "practiced": 7071,
      "momentary": 7072,
      "ounced": 7073,
      "illusion": 7074,
      "alignment": 7075,
      "specialized": 7076,
      "messy": 7077,
      "metaph": 7078,
      "noticeable": 7079,
      "occupy": 7080,
      "distorted": 7081,
      "aggressive": 7082,
      "abundance": 7083,
      "attributes": 7084,
      "Moreover": 7085,
      "Me": 7086,
      "mare": 7087,
      "redom": 7088,
      "exten": 7089,
      "nurtures": 7090,
      "sheer": 7091,
      "necessity": 7092,
      "Breathing": 7093,
      "nightmare": 7094,
      "tune": 7095,
      "viewpoint": 7096,
      "ignites": 7097,
      "appeal": 7098,
      "infuse": 7099,
      "compatible": 7100,
      "perpetual": 7101,
      "kicks": 7102,
      "Close": 7103,
      "cket": 7104,
      "phi": 7105,
      "rain": 7106,
      "tifications": 7107,
      "painted": 7108,
      "downward": 7109,
      "interviews": 7110,
      "acceptable": 7111,
      "universe": 7112,
      "sincerely": 7113,
      "implemented": 7114,
      "aiming": 7115,
      "responds": 7116,
      "facilitating": 7117,
      "intric": 7118,
      "uncharted": 7119,
      "clarifying": 7120,
      "Doubts": 7121,
      "accommodations": 7122,
      "adily": 7123,
      "Showing": 7124,
      "thorough": 7125,
      "\"?": 7126,
      "Fail": 7127,
      "List": 7128,
      "amid": 7129,
      "crying": 7130,
      "fond": 7131,
      "gro": 7132,
      "pop": 7133,
      "tex": 7134,
      "vain": 7135,
      "rebuilt": 7136,
      "urgency": 7137,
      "uninterested": 7138,
      "unanswered": 7139,
      "disapproval": 7140,
      "boredom": 7141,
      "urial": 7142,
      "confrontations": 7143,
      "subtle": 7144,
      "Cognitive": 7145,
      "ignoring": 7146,
      "demons": 7147,
      "cutting": 7148,
      "occasions": 7149,
      "entrepreneurial": 7150,
      "traditions": 7151,
      "eroded": 7152,
      "applaud": 7153,
      "easing": 7154,
      "len": 7155,
      "mund": 7156,
      "erase": 7157,
      "cold": 7158,
      "sig": 7159,
      "shy": 7160,
      "grav": 7161,
      "tics": 7162,
      "connects": 7163,
      "stops": 7164,
      "window": 7165,
      "attractive": 7166,
      "literary": 7167,
      "intrin": 7168,
      "Treating": 7169,
      "gaming": 7170,
      "tles": 7171,
      "varies": 7172,
      "inning": 7173,
      "verb": 7174,
      "shack": 7175,
      "shatter": 7176,
      "partly": 7177,
      "perme": 7178,
      "motivators": 7179,
      "lower": 7180,
      "inspires": 7181,
      "perfectionist": 7182,
      "fixated": 7183,
      "poorly": 7184,
      "woodworking": 7185,
      "neighbor": 7186,
      "Treat": 7187,
      "Utili": 7188,
      "pen": 7189,
      "thrown": 7190,
      "rehab": 7191,
      "indicate": 7192,
      "fil": 7193,
      "propo": 7194,
      "impressed": 7195,
      "Reframing": 7196,
      "raising": 7197,
      "element": 7198,
      "resulted": 7199,
      "assigned": 7200,
      "watercolor": 7201,
      "departure": 7202,
      "diverse": 7203,
      "sufficient": 7204,
      "refuge": 7205,
      "Lily": 7206,
      "asi": 7207,
      "fri": 7208,
      "anti": 7209,
      "rep": 7210,
      "exchanged": 7211,
      "dood": 7212,
      "greatest": 7213,
      "closing": 7214,
      "treats": 7215,
      "emerging": 7216,
      "singing": 7217,
      "Living": 7218,
      "observed": 7219,
      "crumble": 7220,
      "echo": 7221,
      "vy": 7222,
      "yous": 7223,
      "impr": 7224,
      "venues": 7225,
      "casts": 7226,
      "refuses": 7227,
      "capability": 7228,
      "tightly": 7229,
      "sunset": 7230,
      "Perfection": 7231,
      "technical": 7232,
      "Try": 7233,
      "jokes": 7234,
      "joyous": 7235,
      "deepens": 7236,
      "hardships": 7237,
      "toolkit": 7238,
      "specializing": 7239,
      "catching": 7240,
      "judgement": 7241,
      "Stressful": 7242,
      "fades": 7243,
      "slightest": 7244,
      "fluctuate": 7245,
      "documenting": 7246,
      "efficiently": 7247,
      "metaphor": 7248,
      "bb": 7249,
      "bably": 7250,
      "adlines": 7251,
      "avoided": 7252,
      "Deadlines": 7253,
      "sacrifice": 7254,
      "apologizing": 7255,
      "stretch": 7256,
      "empathizing": 7257,
      "Posi": 7258,
      "guarantee": 7259,
      "puzzle": 7260,
      "intrinsic": 7261,
      "15": 7262,
      "ihood": 7263,
      "wren": 7264,
      "tiring": 7265,
      "wider": 7266,
      "solo": 7267,
      "uscri": 7268,
      "remembering": 7269,
      "manuscri": 7270,
      "intended": 7271,
      "validates": 7272,
      "drastic": 7273,
      "visually": 7274,
      "Engage": 7275,
      "wounded": 7276,
      "empathetically": 7277,
      "reacted": 7278,
      "blog": 7279,
      "funding": 7280,
      "detachment": 7281,
      "extended": 7282,
      "Isolating": 7283,
      "symbol": 7284,
      "Validating": 7285,
      "mundane": 7286,
      "shackles": 7287,
      "Aw": 7288,
      "Cri": 7289,
      "Imag": 7290,
      "ctious": 7291,
      "acqui": 7292,
      "forces": 7293,
      "dered": 7294,
      "rome": 7295,
      "Hiking": 7296,
      "acknowledges": 7297,
      "burst": 7298,
      "leadership": 7299,
      "waste": 7300,
      "awak": 7301,
      "lifts": 7302,
      "imperfect": 7303,
      "canceled": 7304,
      "ritual": 7305,
      "gesture": 7306,
      "breakthroughs": 7307,
      "indicators": 7308,
      "louder": 7309,
      "mistrust": 7310,
      "false": 7311,
      "infectious": 7312,
      "bank": 7313,
      "ebb": 7314,
      "ive": 7315,
      "kni": 7316,
      "stim": 7317,
      "envy": 7318,
      "arrange": 7319,
      "summ": 7320,
      "ndrome": 7321,
      "butting": 7322,
      "undi": 7323,
      "unseen": 7324,
      "workspace": 7325,
      "syndrome": 7326,
      "stillness": 7327,
      "rounded": 7328,
      "thrives": 7329,
      "combating": 7330,
      "describing": 7331,
      "soulm": 7332,
      "roadblock": 7333,
      "funny": 7334,
      "adaptability": 7335,
      "secretive": 7336,
      "portray": 7337,
      "interfere": 7338,
      "contrast": 7339,
      "vanished": 7340,
      "Listening": 7341,
      "Cur": 7342,
      "Make": 7343,
      "Use": 7344,
      "Vol": 7345,
      "mma": 7346,
      "wary": 7347,
      "escap": 7348,
      "liked": 7349,
      "costs": 7350,
      "extr": 7351,
      "mbled": 7352,
      "Thought": 7353,
      "probably": 7354,
      "overanalyzing": 7355,
      "overanalyze": 7356,
      "creation": 7357,
      "jog": 7358,
      "savor": 7359,
      "prided": 7360,
      "defines": 7361,
      "presenting": 7362,
      "submit": 7363,
      "fixing": 7364,
      "extending": 7365,
      "berating": 7366,
      "Attending": 7367,
      "rushed": 7368,
      "clingy": 7369,
      "captivating": 7370,
      "fantasi": 7371,
      "erode": 7372,
      "Transition": 7373,
      "Volunte": 7374,
      "Jake": 7375,
      "length": 7376,
      "isure": 7377,
      "leisure": 7378,
      "neither": 7379,
      "assets": 7380,
      "areness": 7381,
      "expense": 7382,
      "odes": 7383,
      "diff": 7384,
      "vesting": 7385,
      "rently": 7386,
      "Should": 7387,
      "resume": 7388,
      "severity": 7389,
      "encounters": 7390,
      "conclusive": 7391,
      "eagerly": 7392,
      "reciprocal": 7393,
      "magnify": 7394,
      "Positive": 7395,
      "wrenching": 7396,
      "Awareness": 7397,
      "Currently": 7398,
      "Volunteering": 7399,
      "Fati": 7400,
      "Hob": 7401,
      "Plan": 7402,
      "bick": 7403,
      "tally": 7404,
      "redefining": 7405,
      "isa": 7406,
      "excep": 7407,
      "proving": 7408,
      "unloved": 7409,
      "disappeared": 7410,
      "spinning": 7411,
      "bitter": 7412,
      "genres": 7413,
      "Surpr": 7414,
      "suggests": 7415,
      "emphasized": 7416,
      "mature": 7417,
      "client": 7418,
      "threatened": 7419,
      "material": 7420,
      "advancement": 7421,
      "reels": 7422,
      "birdwatching": 7423,
      "bumps": 7424,
      "enabling": 7425,
      "Repeat": 7426,
      "Utilizing": 7427,
      "Critic": 7428,
      "Fatigue": 7429,
      "Hobbies": 7430,
      "Lisa": 7431,
      "Mean": 7432,
      "dust": 7433,
      "ky": 7434,
      "kno": 7435,
      "yelling": 7436,
      "worsens": 7437,
      "gray": 7438,
      "Investing": 7439,
      "trea": 7440,
      "object": 7441,
      "collectively": 7442,
      "disagreeing": 7443,
      "dealt": 7444,
      "occurs": 7445,
      "destro": 7446,
      "sensitivity": 7447,
      "visualizing": 7448,
      "snacks": 7449,
      "spilled": 7450,
      "tonight": 7451,
      "preced": 7452,
      "episodes": 7453,
      "friction": 7454,
      "Che": 7455,
      "eve": 7456,
      "spr": 7457,
      "repri": 7458,
      "totally": 7459,
      "tip": 7460,
      "lyric": 7461,
      "breach": 7462,
      "excite": 7463,
      "crushed": 7464,
      "restri": 7465,
      "spirals": 7466,
      "unsettled": 7467,
      "contribution": 7468,
      "marath": 7469,
      "Avoidance": 7470,
      "impulsive": 7471,
      "blessings": 7472,
      "seeds": 7473,
      "contradicts": 7474,
      "ridicul": 7475,
      "catastrophi": 7476,
      "Thoughts": 7477,
      "Criticism": 7478,
      "kitch": 7479,
      "ped": 7480,
      "sele": 7481,
      "peak": 7482,
      "desk": 7483,
      "boat": 7484,
      "heartbreaks": 7485,
      "couraging": 7486,
      "inclusive": 7487,
      "concentrating": 7488,
      "tackling": 7489,
      "experts": 7490,
      "relevant": 7491,
      "evaluation": 7492,
      "ligence": 7493,
      "temptations": 7494,
      "Encouraging": 7495,
      "reshaping": 7496,
      "knife": 7497,
      "Planning": 7498,
      "aur": 7499,
      "expensive": 7500,
      "enduring": 7501,
      "amatic": 7502,
      "encing": 7503,
      "maze": 7504,
      "misunderstand": 7505,
      "restful": 7506,
      "foreign": 7507,
      "voic": 7508,
      "angle": 7509,
      "multifaceted": 7510,
      "buying": 7511,
      "equate": 7512,
      "generally": 7513,
      "threats": 7514,
      "backgrounds": 7515,
      "originated": 7516,
      "fract": 7517,
      "throws": 7518,
      "conveni": 7519,
      "humiliated": 7520,
      "cheerleader": 7521,
      "Express": 7522,
      "Gradually": 7523,
      "kitchen": 7524,
      "Dis": 7525,
      "cand": 7526,
      "ccer": 7527,
      "enables": 7528,
      "susp": 7529,
      "unfulfilling": 7530,
      "healed": 7531,
      "mindlessly": 7532,
      "stressing": 7533,
      "correct": 7534,
      "meditating": 7535,
      "draws": 7536,
      "update": 7537,
      "articles": 7538,
      "dearly": 7539,
      "diminished": 7540,
      "prolonged": 7541,
      "winning": 7542,
      "Cherishing": 7543,
      "objectively": 7544,
      "Transitioning": 7545,
      "lyrics": 7546,
      "marathon": 7547,
      "Travel": 7548,
      "reopening": 7549,
      "activ": 7550,
      "approachable": 7551,
      "syn": 7552,
      "incorporated": 7553,
      "scattered": 7554,
      "photographer": 7555,
      "Forgiving": 7556,
      "wishes": 7557,
      "Distr": 7558,
      "Friendship": 7559,
      "students": 7560,
      "jeopardizing": 7561,
      "pillar": 7562,
      "transparent": 7563,
      "preparation": 7564,
      "birthday": 7565,
      "Failure": 7566,
      "cational": 7567,
      "dressing": 7568,
      "gau": 7569,
      "sent": 7570,
      "fea": 7571,
      "soccer": 7572,
      "ellence": 7573,
      "excellence": 7574,
      "profit": 7575,
      "curated": 7576,
      "embarked": 7577,
      "glimmers": 7578,
      "facts": 7579,
      "internalizing": 7580,
      "researched": 7581,
      "destruction": 7582,
      "finger": 7583,
      "distort": 7584,
      "modalities": 7585,
      "spontaneous": 7586,
      "plummeted": 7587,
      "podcasts": 7588,
      "sneak": 7589,
      "manuscript": 7590,
      "undivided": 7591,
      "bickering": 7592,
      "thread": 7593,
      "coach": 7594,
      "conform": 7595,
      "modate": 7596,
      "imply": 7597,
      "icion": 7598,
      "understandings": 7599,
      "idealized": 7600,
      "wrapped": 7601,
      "foremost": 7602,
      "dramatic": 7603,
      "oster": 7604,
      "bullies": 7605,
      "slipped": 7606,
      "frequency": 7607,
      "designed": 7608,
      "directories": 7609,
      "accommodate": 7610,
      "skyrocke": 7611,
      "whisper": 7612,
      "extensively": 7613,
      "fantasies": 7614,
      "reprieve": 7615,
      "suspicion": 7616,
      "Traveling": 7617,
      "ff": 7618,
      "tapped": 7619,
      "elihood": 7620,
      "suspect": 7621,
      "urgent": 7622,
      "weather": 7623,
      "proje": 7624,
      "undergone": 7625,
      "unaware": 7626,
      "hasis": 7627,
      "iling": 7628,
      "builds": 7629,
      "emphasis": 7630,
      "honors": 7631,
      "mast": 7632,
      "clean": 7633,
      "sucked": 7634,
      "enery": 7635,
      "moni": 7636,
      "closed": 7637,
      "ctory": 7638,
      "stribut": 7639,
      "bridges": 7640,
      "participation": 7641,
      "detailed": 7642,
      "Practice": 7643,
      "educational": 7644,
      "likelihood": 7645,
      "jumps": 7646,
      "snapping": 7647,
      "magnified": 7648,
      "quitting": 7649,
      "fluctuations": 7650,
      "Assertiveness": 7651,
      "bombarded": 7652,
      "Ner": 7653,
      "Vie": 7654,
      "bla": 7655,
      "ders": 7656,
      "sof": 7657,
      "tiously": 7658,
      "ndi": 7659,
      "logies": 7660,
      "viol": 7661,
      "unfinished": 7662,
      "notifications": 7663,
      "notes": 7664,
      "providers": 7665,
      "settling": 7666,
      "prioritizes": 7667,
      "Addressing": 7668,
      "speaker": 7669,
      "previously": 7670,
      "stream": 7671,
      "equal": 7672,
      "ambition": 7673,
      "survive": 7674,
      "showcasing": 7675,
      "worsening": 7676,
      "tailor": 7677,
      "blossom": 7678,
      "sync": 7679,
      "Walking": 7680,
      "ev": 7681,
      "hic": 7682,
      "pas": 7683,
      "ym": 7684,
      "returning": 7685,
      "err": 7686,
      "tol": 7687,
      "iss": 7688,
      "ours": 7689,
      "aint": 7690,
      "workout": 7691,
      "Reading": 7692,
      "tear": 7693,
      "nivers": 7694,
      "ems": 7695,
      "Abuse": 7696,
      "doubtful": 7697,
      "anxiousness": 7698,
      "reassures": 7699,
      "broader": 7700,
      "escalation": 7701,
      "scenes": 7702,
      "faults": 7703,
      "paralyzes": 7704,
      "attracted": 7705,
      "grapple": 7706,
      "Finally": 7707,
      "prompts": 7708,
      "repeatedly": 7709,
      "permanent": 7710,
      "plagued": 7711,
      "imprint": 7712,
      "Nervous": 7713,
      "Gen": 7714,
      "asive": 7715,
      "ees": 7716,
      "uine": 7717,
      "inn": 7718,
      "demean": 7719,
      "pective": 7720,
      "indo": 7721,
      "odd": 7722,
      "imagery": 7723,
      "ski": 7724,
      "wasted": 7725,
      "cautiously": 7726,
      "gambling": 7727,
      "feeding": 7728,
      "admitted": 7729,
      "explained": 7730,
      "Reflect": 7731,
      "cathars": 7732,
      "anew": 7733,
      "flooding": 7734,
      "harshly": 7735,
      "underestim": 7736,
      "sinking": 7737,
      "intelligence": 7738,
      "eliminate": 7739,
      "blamed": 7740,
      "Genuine": 7741,
      "catharsis": 7742,
      "eter": 7743,
      "pond": 7744,
      "tapping": 7745,
      "sip": 7746,
      "trail": 7747,
      "thereof": 7748,
      "pled": 7749,
      "agency": 7750,
      "ronting": 7751,
      "pointless": 7752,
      "channels": 7753,
      "measurable": 7754,
      "Confronting": 7755,
      "Staying": 7756,
      "internally": 7757,
      "instruc": 7758,
      "integrity": 7759,
      "derail": 7760,
      "born": 7761,
      "Emotional": 7762,
      "worsened": 7763,
      "hostility": 7764,
      "devote": 7765,
      "gauge": 7766,
      "innate": 7767,
      "Usually": 7768,
      "danger": 7769,
      "nor": 7770,
      "vative": 7771,
      "inad": 7772,
      "recreate": 7773,
      "readily": 7774,
      "erup": 7775,
      "toes": 7776,
      "lever": 7777,
      "deed": 7778,
      "respective": 7779,
      "Things": 7780,
      "provoke": 7781,
      "custom": 7782,
      "spends": 7783,
      "timing": 7784,
      "desir": 7785,
      "navigated": 7786,
      "motives": 7787,
      "mination": 7788,
      "interpersonal": 7789,
      "transc": 7790,
      "betrayals": 7791,
      "Cooking": 7792,
      "described": 7793,
      "berate": 7794,
      "observations": 7795,
      "canvases": 7796,
      "Supporting": 7797,
      "exhibit": 7798,
      "dropped": 7799,
      "sketching": 7800,
      "externally": 7801,
      "vertently": 7802,
      "halfway": 7803,
      "intricacies": 7804,
      "Perfectionism": 7805,
      "soulmate": 7806,
      "demeanor": 7807,
      "inadvertently": 7808,
      "ison": 7809,
      "outgoing": 7810,
      "exagg": 7811,
      "urous": 7812,
      "usage": 7813,
      "wellness": 7814,
      "tainted": 7815,
      "getaway": 7816,
      "kinds": 7817,
      "Indeed": 7818,
      "responsive": 7819,
      "former": 7820,
      "sidering": 7821,
      "captures": 7822,
      "cultivated": 7823,
      "statement": 7824,
      "Considering": 7825,
      "Changing": 7826,
      "shadows": 7827,
      "Motiv": 7828,
      "explanations": 7829,
      "definitive": 7830,
      "Healthy": 7831,
      "captivated": 7832,
      "complaining": 7833,
      "Misunderstandings": 7834,
      "instilled": 7835,
      "Viewing": 7836,
      "Playing": 7837,
      "annivers": 7838,
      "sus": 7839,
      "dim": 7840,
      "stopping": 7841,
      "shouldering": 7842,
      "otes": 7843,
      "interacting": 7844,
      "discoveries": 7845,
      "Honesty": 7846,
      "avoids": 7847,
      "faithful": 7848,
      "spoke": 7849,
      "sustaining": 7850,
      "adventurous": 7851,
      "debts": 7852,
      "dreading": 7853,
      "compatibility": 7854,
      "undermines": 7855,
      "gallery": 7856,
      "pleasant": 7857,
      "neighborhood": 7858,
      "whispering": 7859,
      "Get": 7860,
      "Or": 7861,
      "snow": 7862,
      "secon": 7863,
      "heel": 7864,
      "absor": 7865,
      "perse": 7866,
      "burner": 7867,
      "shortness": 7868,
      "nonlinear": 7869,
      "charity": 7870,
      "reacts": 7871,
      "appeals": 7872,
      "digital": 7873,
      "dietary": 7874,
      "releases": 7875,
      "threatening": 7876,
      "balls": 7877,
      "Impro": 7878,
      "Traum": 7879,
      "psychological": 7880,
      "freelance": 7881,
      "Meeting": 7882,
      "ridiculed": 7883,
      "customers": 7884,
      "seconds": 7885,
      "Na": 7886,
      "ech": 7887,
      "paced": 7888,
      "sni": 7889,
      "onounced": 7890,
      "chir": 7891,
      "disinterested": 7892,
      "compo": 7893,
      "quotes": 7894,
      "pronounced": 7895,
      "casting": 7896,
      "welcoming": 7897,
      "Honoring": 7898,
      "coupled": 7899,
      "bedroom": 7900,
      "succeeded": 7901,
      "flooded": 7902,
      "refreshed": 7903,
      "reevaluating": 7904,
      "justi": 7905,
      "textures": 7906,
      "signal": 7907,
      "Getting": 7908,
      "chirping": 7909,
      "dates": 7910,
      "ification": 7911,
      "slo": 7912,
      "inward": 7913,
      "invalidate": 7914,
      "mere": 7915,
      "coped": 7916,
      "aker": 7917,
      "worn": 7918,
      "admission": 7919,
      "cessing": 7920,
      "greatness": 7921,
      "increments": 7922,
      "mares": 7923,
      "intensely": 7924,
      "Moments": 7925,
      "studying": 7926,
      "magnifies": 7927,
      "culmination": 7928,
      "reputation": 7929,
      "skyrocket": 7930,
      "herbs": 7931,
      "feasible": 7932,
      "Ang": 7933,
      "Anon": 7934,
      "Slow": 7935,
      "bling": 7936,
      "mattered": 7937,
      "lived": 7938,
      "ppery": 7939,
      "enty": 7940,
      "uncontroll": 7941,
      "owning": 7942,
      "plenty": 7943,
      "vigating": 7944,
      "regulation": 7945,
      "comfortably": 7946,
      "obs": 7947,
      "reduces": 7948,
      "bliss": 7949,
      "slippery": 7950,
      "piled": 7951,
      "intricate": 7952,
      "demonstrated": 7953,
      "Peace": 7954,
      "wiser": 7955,
      "perpetuating": 7956,
      "fluctuating": 7957,
      "monotony": 7958,
      "Negle": 7959,
      "empathizes": 7960,
      "Share": 7961,
      "precedence": 7962,
      "soft": 7963,
      "Navigating": 7964,
      "Happ": 7965,
      "maker": 7966,
      "pound": 7967,
      "squ": 7968,
      "reintroducing": 7969,
      "sober": 7970,
      "rope": 7971,
      "dip": 7972,
      "shall": 7973,
      "procra": 7974,
      "grind": 7975,
      "custo": 7976,
      "spare": 7977,
      "transl": 7978,
      "awake": 7979,
      "promoted": 7980,
      "isingly": 7981,
      "manifestations": 7982,
      "exhibitions": 7983,
      "Surprisingly": 7984,
      "slope": 7985,
      "ltr": 7986,
      "leness": 7987,
      "rance": 7988,
      "wheel": 7989,
      "utmost": 7990,
      "train": 7991,
      "mitigate": 7992,
      "workers": 7993,
      "ague": 7994,
      "arency": 7995,
      "ists": 7996,
      "flawless": 7997,
      "heights": 7998,
      "figuring": 7999
    },
    "merges": [
      [
        "i",
        "n"
      ],
      [
        "t",
        "h"
      ],
      [
        "o",
        "u"
      ],
      [
        "a",
        "n"
      ],
      [
        "r",
        "e"
      ],
      [
        "in",
        "g"
      ],
      [
        "o",
        "n"
      ],
      [
        "a",
        "t"
      ],
      [
        "e",
        "r"
      ],
      [
        "e",
        "n"
      ],
      [
        "t",
        "o"
      ],
      [
        "y",
        "ou"
      ],
      [
        "e",
        "l"
      ],
      [
        "an",
        "d"
      ],
      [
        "e",
        "s"
      ],
      [
        "o",
        "r"
      ],
      [
        "a",
        "l"
      ],
      [
        "t",
        "i"
      ],
      [
        "s",
        "t"
      ],
      [
        "m",
        "e"
      ],
      [
        "v",
        "e"
      ],
      [
        "th",
        "e"
      ],
      [
        "i",
        "s"
      ],
      [
        "i",
        "t"
      ],
      [
        "b",
        "e"
      ],
      [
        "a",
        "r"
      ],
      [
        "f",
        "e"
      ],
      [
        "you",
        "r"
      ],
      [
        "e",
        "d"
      ],
      [
        "o",
        "f"
      ],
      [
        "a",
        "c"
      ],
      [
        "l",
        "i"
      ],
      [
        "o",
        "w"
      ],
      [
        "m",
        "y"
      ],
      [
        "h",
        "a"
      ],
      [
        "th",
        "at"
      ],
      [
        "l",
        "e"
      ],
      [
        "s",
        "e"
      ],
      [
        "I",
        "t"
      ],
      [
        "h",
        "e"
      ],
      [
        "i",
        "on"
      ],
      [
        "l",
        "y"
      ],
      [
        "k",
        "e"
      ],
      [
        "w",
        "i"
      ],
      [
        "c",
        "o"
      ],
      [
        "c",
        "on"
      ],
      [
        "f",
        "or"
      ],
      [
        "c",
        "an"
      ],
      [
        "fe",
        "el"
      ],
      [
        "a",
        "b"
      ],
      [
        "s",
        "u"
      ],
      [
        "n",
        "e"
      ],
      [
        "g",
        "h"
      ],
      [
        "s",
        "o"
      ],
      [
        "v",
        "er"
      ],
      [
        "p",
        "p"
      ],
      [
        "ou",
        "t"
      ],
      [
        "s",
        "el"
      ],
      [
        "a",
        "y"
      ],
      [
        "r",
        "i"
      ],
      [
        "d",
        "e"
      ],
      [
        "r",
        "o"
      ],
      [
        "m",
        "o"
      ],
      [
        "w",
        "h"
      ],
      [
        "wi",
        "th"
      ],
      [
        "sel",
        "f"
      ],
      [
        "e",
        "x"
      ],
      [
        "n",
        "d"
      ],
      [
        "ti",
        "on"
      ],
      [
        "at",
        "ion"
      ],
      [
        "u",
        "l"
      ],
      [
        "s",
        "i"
      ],
      [
        "en",
        "t"
      ],
      [
        "p",
        "e"
      ],
      [
        "ou",
        "r"
      ],
      [
        "es",
        "s"
      ],
      [
        "u",
        "t"
      ],
      [
        "m",
        "p"
      ],
      [
        "c",
        "h"
      ],
      [
        "c",
        "e"
      ],
      [
        "a",
        "s"
      ],
      [
        "l",
        "o"
      ],
      [
        "th",
        "is"
      ],
      [
        "in",
        "d"
      ],
      [
        "li",
        "ke"
      ],
      [
        "or",
        "t"
      ],
      [
        "th",
        "er"
      ],
      [
        "re",
        "s"
      ],
      [
        "l",
        "d"
      ],
      [
        "at",
        "e"
      ],
      [
        "a",
        "re"
      ],
      [
        "d",
        "i"
      ],
      [
        "a",
        "k"
      ],
      [
        "w",
        "or"
      ],
      [
        "gh",
        "t"
      ],
      [
        "l",
        "l"
      ],
      [
        "ex",
        "p"
      ],
      [
        "g",
        "e"
      ],
      [
        "an",
        "t"
      ],
      [
        "f",
        "i"
      ],
      [
        "c",
        "t"
      ],
      [
        "be",
        "en"
      ],
      [
        "al",
        "l"
      ],
      [
        "a",
        "d"
      ],
      [
        "f",
        "ul"
      ],
      [
        "ab",
        "out"
      ],
      [
        "ha",
        "ve"
      ],
      [
        "s",
        "h"
      ],
      [
        "m",
        "b"
      ],
      [
        "v",
        "i"
      ],
      [
        "T",
        "h"
      ],
      [
        "su",
        "pp"
      ],
      [
        "e",
        "p"
      ],
      [
        "u",
        "r"
      ],
      [
        "w",
        "ay"
      ],
      [
        "m",
        "ent"
      ],
      [
        "u",
        "s"
      ],
      [
        "b",
        "ut"
      ],
      [
        "c",
        "i"
      ],
      [
        "ar",
        "t"
      ],
      [
        "t",
        "r"
      ],
      [
        "w",
        "e"
      ],
      [
        "a",
        "in"
      ],
      [
        "el",
        "l"
      ],
      [
        "so",
        "me"
      ],
      [
        "feel",
        "ing"
      ],
      [
        "ou",
        "nd"
      ],
      [
        "en",
        "d"
      ],
      [
        "supp",
        "ort"
      ],
      [
        "p",
        "ro"
      ],
      [
        "an",
        "y"
      ],
      [
        "h",
        "el"
      ],
      [
        "m",
        "i"
      ],
      [
        "ou",
        "ld"
      ],
      [
        "hel",
        "p"
      ],
      [
        "u",
        "nd"
      ],
      [
        "ar",
        "d"
      ],
      [
        "res",
        "s"
      ],
      [
        "mb",
        "er"
      ],
      [
        "und",
        "er"
      ],
      [
        "me",
        "mber"
      ],
      [
        "al",
        "ly"
      ],
      [
        "th",
        "ing"
      ],
      [
        "u",
        "n"
      ],
      [
        "el",
        "y"
      ],
      [
        "co",
        "m"
      ],
      [
        "u",
        "st"
      ],
      [
        "st",
        "and"
      ],
      [
        "f",
        "ind"
      ],
      [
        "i",
        "mp"
      ],
      [
        "n",
        "o"
      ],
      [
        "n",
        "ow"
      ],
      [
        "u",
        "i"
      ],
      [
        "under",
        "stand"
      ],
      [
        "se",
        "e"
      ],
      [
        "h",
        "o"
      ],
      [
        "ac",
        "h"
      ],
      [
        "tion",
        "s"
      ],
      [
        "he",
        "al"
      ],
      [
        "on",
        "e"
      ],
      [
        "ou",
        "gh"
      ],
      [
        "a",
        "ke"
      ],
      [
        "sh",
        "i"
      ],
      [
        "mo",
        "re"
      ],
      [
        "wor",
        "k"
      ],
      [
        "ti",
        "me"
      ],
      [
        "e",
        "ver"
      ],
      [
        "d",
        "o"
      ],
      [
        "i",
        "e"
      ],
      [
        "he",
        "re"
      ],
      [
        "o",
        "p"
      ],
      [
        "R",
        "e"
      ],
      [
        "g",
        "o"
      ],
      [
        "re",
        "l"
      ],
      [
        "ab",
        "le"
      ],
      [
        "u",
        "p"
      ],
      [
        "shi",
        "p"
      ],
      [
        "st",
        "r"
      ],
      [
        "g",
        "r"
      ],
      [
        "es",
        "e"
      ],
      [
        "an",
        "ce"
      ],
      [
        "the",
        "re"
      ],
      [
        "ac",
        "e"
      ],
      [
        "er",
        "s"
      ],
      [
        "o",
        "ver"
      ],
      [
        "p",
        "o"
      ],
      [
        "th",
        "ese"
      ],
      [
        "Re",
        "member"
      ],
      [
        "t",
        "ing"
      ],
      [
        "it",
        "y"
      ],
      [
        "ti",
        "ve"
      ],
      [
        "wh",
        "en"
      ],
      [
        "d",
        "is"
      ],
      [
        "Th",
        "at"
      ],
      [
        "es",
        "t"
      ],
      [
        "my",
        "self"
      ],
      [
        "t",
        "er"
      ],
      [
        "g",
        "ing"
      ],
      [
        "e",
        "mo"
      ],
      [
        "c",
        "re"
      ],
      [
        "h",
        "ow"
      ],
      [
        "ti",
        "c"
      ],
      [
        "o",
        "ther"
      ],
      [
        "st",
        "ep"
      ],
      [
        "j",
        "our"
      ],
      [
        "ri",
        "end"
      ],
      [
        "t",
        "ak"
      ],
      [
        "f",
        "riend"
      ],
      [
        "fi",
        "c"
      ],
      [
        "a",
        "pp"
      ],
      [
        "v",
        "en"
      ],
      [
        "H",
        "ow"
      ],
      [
        "a",
        "p"
      ],
      [
        "w",
        "ard"
      ],
      [
        "wh",
        "at"
      ],
      [
        "ow",
        "n"
      ],
      [
        "no",
        "t"
      ],
      [
        "your",
        "self"
      ],
      [
        "ro",
        "m"
      ],
      [
        "r",
        "ough"
      ],
      [
        "ation",
        "ship"
      ],
      [
        "th",
        "in"
      ],
      [
        "ti",
        "es"
      ],
      [
        "rel",
        "ationship"
      ],
      [
        "all",
        "en"
      ],
      [
        "th",
        "rough"
      ],
      [
        "ch",
        "allen"
      ],
      [
        "re",
        "n"
      ],
      [
        "thin",
        "k"
      ],
      [
        "k",
        "now"
      ],
      [
        "com",
        "m"
      ],
      [
        "f",
        "rom"
      ],
      [
        "c",
        "are"
      ],
      [
        "s",
        "ound"
      ],
      [
        "co",
        "me"
      ],
      [
        "ne",
        "y"
      ],
      [
        "jour",
        "ney"
      ],
      [
        "ha",
        "s"
      ],
      [
        "li",
        "fe"
      ],
      [
        "g",
        "i"
      ],
      [
        "m",
        "ind"
      ],
      [
        "ne",
        "ed"
      ],
      [
        "c",
        "us"
      ],
      [
        "a",
        "ve"
      ],
      [
        "en",
        "se"
      ],
      [
        "wi",
        "ll"
      ],
      [
        "re",
        "d"
      ],
      [
        "er",
        "i"
      ],
      [
        "w",
        "ant"
      ],
      [
        "co",
        "mp"
      ],
      [
        "v",
        "ing"
      ],
      [
        "f",
        "fe"
      ],
      [
        "g",
        "ui"
      ],
      [
        "b",
        "r"
      ],
      [
        "c",
        "ess"
      ],
      [
        "sound",
        "s"
      ],
      [
        "j",
        "o"
      ],
      [
        "q",
        "u"
      ],
      [
        "ou",
        "ght"
      ],
      [
        "be",
        "ing"
      ],
      [
        "a",
        "m"
      ],
      [
        "i",
        "c"
      ],
      [
        "pe",
        "ci"
      ],
      [
        "a",
        "ge"
      ],
      [
        "f",
        "o"
      ],
      [
        "en",
        "c"
      ],
      [
        "t",
        "ri"
      ],
      [
        "b",
        "y"
      ],
      [
        "c",
        "tion"
      ],
      [
        "k",
        "ing"
      ],
      [
        "way",
        "s"
      ],
      [
        "imp",
        "ort"
      ],
      [
        "f",
        "a"
      ],
      [
        "exp",
        "eri"
      ],
      [
        "en",
        "ce"
      ],
      [
        "con",
        "f"
      ],
      [
        "s",
        "ense"
      ],
      [
        "emo",
        "tions"
      ],
      [
        "at",
        "ing"
      ],
      [
        "H",
        "ave"
      ],
      [
        "g",
        "g"
      ],
      [
        "th",
        "ought"
      ],
      [
        "i",
        "r"
      ],
      [
        "b",
        "re"
      ],
      [
        "st",
        "art"
      ],
      [
        "W",
        "h"
      ],
      [
        "p",
        "r"
      ],
      [
        "t",
        "en"
      ],
      [
        "p",
        "ers"
      ],
      [
        "so",
        "l"
      ],
      [
        "on",
        "g"
      ],
      [
        "ever",
        "y"
      ],
      [
        "exp",
        "lo"
      ],
      [
        "import",
        "ant"
      ],
      [
        "c",
        "ould"
      ],
      [
        "n",
        "ess"
      ],
      [
        "w",
        "ell"
      ],
      [
        "t",
        "e"
      ],
      [
        "w",
        "ould"
      ],
      [
        "s",
        "p"
      ],
      [
        "an",
        "k"
      ],
      [
        "i",
        "l"
      ],
      [
        "c",
        "a"
      ],
      [
        "heal",
        "th"
      ],
      [
        "to",
        "ward"
      ],
      [
        "explo",
        "re"
      ],
      [
        "n",
        "i"
      ],
      [
        "u",
        "re"
      ],
      [
        "j",
        "ust"
      ],
      [
        "lo",
        "ve"
      ],
      [
        "toward",
        "s"
      ],
      [
        "op",
        "en"
      ],
      [
        "at",
        "i"
      ],
      [
        "t",
        "y"
      ],
      [
        "ation",
        "s"
      ],
      [
        "m",
        "ake"
      ],
      [
        "s",
        "ion"
      ],
      [
        "ti",
        "v"
      ],
      [
        "p",
        "l"
      ],
      [
        "ne",
        "w"
      ],
      [
        "feeling",
        "s"
      ],
      [
        "o",
        "se"
      ],
      [
        "the",
        "m"
      ],
      [
        "re",
        "ally"
      ],
      [
        "a",
        "g"
      ],
      [
        "con",
        "ne"
      ],
      [
        "li",
        "ct"
      ],
      [
        "si",
        "de"
      ],
      [
        "gui",
        "d"
      ],
      [
        "bre",
        "ak"
      ],
      [
        "e",
        "f"
      ],
      [
        "on",
        "d"
      ],
      [
        "le",
        "t"
      ],
      [
        "ac",
        "t"
      ],
      [
        "ho",
        "pe"
      ],
      [
        "s",
        "peci"
      ],
      [
        "he",
        "ar"
      ],
      [
        "b",
        "el"
      ],
      [
        "Th",
        "ank"
      ],
      [
        "conf",
        "lict"
      ],
      [
        "feel",
        "s"
      ],
      [
        "i",
        "f"
      ],
      [
        "Y",
        "ou"
      ],
      [
        "jo",
        "y"
      ],
      [
        "tr",
        "y"
      ],
      [
        "al",
        "i"
      ],
      [
        "e",
        "t"
      ],
      [
        "p",
        "ain"
      ],
      [
        "ch",
        "an"
      ],
      [
        "pro",
        "cess"
      ],
      [
        "ther",
        "ap"
      ],
      [
        "ha",
        "pp"
      ],
      [
        "challen",
        "ging"
      ],
      [
        "at",
        "ed"
      ],
      [
        "wh",
        "o"
      ],
      [
        "C",
        "an"
      ],
      [
        "bel",
        "ie"
      ],
      [
        "al",
        "so"
      ],
      [
        "in",
        "to"
      ],
      [
        "ou",
        "s"
      ],
      [
        "heal",
        "ing"
      ],
      [
        "an",
        "x"
      ],
      [
        "mi",
        "ght"
      ],
      [
        "guid",
        "ance"
      ],
      [
        "u",
        "e"
      ],
      [
        "ti",
        "m"
      ],
      [
        "ment",
        "s"
      ],
      [
        "speci",
        "fic"
      ],
      [
        "er",
        "ful"
      ],
      [
        "o",
        "d"
      ],
      [
        "e",
        "m"
      ],
      [
        "other",
        "s"
      ],
      [
        "ge",
        "ther"
      ],
      [
        "d",
        "on"
      ],
      [
        "ac",
        "ti"
      ],
      [
        "n",
        "a"
      ],
      [
        "s",
        "ha"
      ],
      [
        "g",
        "re"
      ],
      [
        "fe",
        "ar"
      ],
      [
        "mi",
        "ly"
      ],
      [
        "st",
        "ant"
      ],
      [
        "experi",
        "enc"
      ],
      [
        "c",
        "er"
      ],
      [
        "the",
        "y"
      ],
      [
        "comm",
        "un"
      ],
      [
        "n",
        "er"
      ],
      [
        "tak",
        "es"
      ],
      [
        "pro",
        "vi"
      ],
      [
        "br",
        "ing"
      ],
      [
        "exp",
        "ress"
      ],
      [
        "Wh",
        "at"
      ],
      [
        "se",
        "t"
      ],
      [
        "t",
        "ake"
      ],
      [
        "fa",
        "mily"
      ],
      [
        "pe",
        "ct"
      ],
      [
        "gr",
        "ow"
      ],
      [
        "re",
        "ach"
      ],
      [
        "po",
        "si"
      ],
      [
        "e",
        "ven"
      ],
      [
        "ver",
        "s"
      ],
      [
        "at",
        "ely"
      ],
      [
        "friend",
        "s"
      ],
      [
        "ac",
        "k"
      ],
      [
        "st",
        "ress"
      ],
      [
        "su",
        "re"
      ],
      [
        "con",
        "stant"
      ],
      [
        "al",
        "ways"
      ],
      [
        "in",
        "e"
      ],
      [
        "ur",
        "ing"
      ],
      [
        "d",
        "es"
      ],
      [
        "wh",
        "el"
      ],
      [
        "over",
        "whel"
      ],
      [
        "n",
        "s"
      ],
      [
        "d",
        "re"
      ],
      [
        "relationship",
        "s"
      ],
      [
        "t",
        "ell"
      ],
      [
        "gre",
        "at"
      ],
      [
        "any",
        "thing"
      ],
      [
        "t",
        "al"
      ],
      [
        "understand",
        "ing"
      ],
      [
        "w",
        "ond"
      ],
      [
        "pers",
        "on"
      ],
      [
        "con",
        "vers"
      ],
      [
        "p",
        "art"
      ],
      [
        "d",
        "ay"
      ],
      [
        "fo",
        "cus"
      ],
      [
        "de",
        "ep"
      ],
      [
        "dre",
        "am"
      ],
      [
        "m",
        "s"
      ],
      [
        "r",
        "y"
      ],
      [
        "b",
        "o"
      ],
      [
        "ri",
        "ght"
      ],
      [
        "g",
        "es"
      ],
      [
        "commun",
        "ic"
      ],
      [
        "ui",
        "ld"
      ],
      [
        "go",
        "ing"
      ],
      [
        "ak",
        "ing"
      ],
      [
        "W",
        "ell"
      ],
      [
        "vi",
        "g"
      ],
      [
        "ie",
        "ty"
      ],
      [
        "na",
        "vig"
      ],
      [
        "di",
        "f"
      ],
      [
        "tim",
        "es"
      ],
      [
        "find",
        "ing"
      ],
      [
        "th",
        "ose"
      ],
      [
        "posi",
        "tive"
      ],
      [
        "ul",
        "t"
      ],
      [
        "con",
        "t"
      ],
      [
        "g",
        "ni"
      ],
      [
        "as",
        "sion"
      ],
      [
        "i",
        "es"
      ],
      [
        "provi",
        "de"
      ],
      [
        "ci",
        "al"
      ],
      [
        "T",
        "he"
      ],
      [
        "in",
        "ess"
      ],
      [
        ",",
        ","
      ],
      [
        "the",
        "ir"
      ],
      [
        "to",
        "gether"
      ],
      [
        "dif",
        "fic"
      ],
      [
        "z",
        "e"
      ],
      [
        "belie",
        "ve"
      ],
      [
        "qu",
        "es"
      ],
      [
        "str",
        "u"
      ],
      [
        "i",
        "m"
      ],
      [
        "vi",
        "ties"
      ],
      [
        "acti",
        "vities"
      ],
      [
        "therap",
        "y"
      ],
      [
        "il",
        "ity"
      ],
      [
        "anx",
        "iety"
      ],
      [
        "I",
        "s"
      ],
      [
        "o",
        "l"
      ],
      [
        "re",
        "member"
      ],
      [
        "g",
        "th"
      ],
      [
        "h",
        "ard"
      ],
      [
        "ren",
        "gth"
      ],
      [
        "st",
        "rength"
      ],
      [
        "m",
        "ay"
      ],
      [
        "he",
        "art"
      ],
      [
        "p",
        "a"
      ],
      [
        "navig",
        "ate"
      ],
      [
        "in",
        "cre"
      ],
      [
        "see",
        "king"
      ],
      [
        "g",
        "u"
      ],
      [
        "lo",
        "t"
      ],
      [
        "our",
        "age"
      ],
      [
        "l",
        "ed"
      ],
      [
        "wond",
        "erful"
      ],
      [
        "app",
        "re"
      ],
      [
        "w",
        "here"
      ],
      [
        "diffic",
        "ult"
      ],
      [
[...]
